<unk>	0
<s>	0
</s>	0
<pad>	0
▁,	-3.03953
▁.	-3.16291
▁the	-4.08474
▁to	-4.45787
▁and	-4.61452
▁of	-4.61477
▁là	-4.62683
▁tôi	-4.64908
▁a	-4.71866
▁và	-4.78216
▁một	-4.80125
▁có	-4.82408
▁that	-4.94959
▁I	-5.0056
▁"	-5.02198
▁in	-5.02914
▁những	-5.04592
▁của	-5.07241
▁chúng	-5.08552
▁is	-5.18645
▁không	-5.26178
▁ta	-5.33245
▁you	-5.33964
▁người	-5.35943
▁đó	-5.40793
▁bạn	-5.42128
▁trong	-5.46182
▁này	-5.50712
▁thể	-5.51569
▁we	-5.52062
▁And	-5.52558
▁đã	-5.54186
▁it	-5.55841
▁this	-5.59037
▁được	-5.59302
▁?	-5.59702
▁với	-5.66249
▁các	-5.67684
▁cho	-5.70245
▁--	-5.77867
▁ra	-5.78268
▁sự	-5.7867
▁Và	-5.78993
▁làm	-5.79887
▁was	-5.81037
▁mà	-5.86728
▁for	-5.89027
▁về	-5.89655
▁nó	-5.91931
▁để	-5.923
▁như	-5.92671
▁ở	-5.95017
▁sẽ	-6.00281
▁are	-6.03952
▁điều	-6.04368
▁have	-6.04786
▁thế	-6.05205
▁Tôi	-6.06263
▁on	-6.08302
▁with	-6.1094
▁khi	-6.12738
▁họ	-6.13763
▁:	-6.148
▁do	-6.17617
▁nói	-6.19176
▁đến	-6.19783
▁rằng	-6.2388
▁So	-6.26969
▁phải	-6.27231
▁can	-6.28153
▁từ	-6.28153
▁việc	-6.28418
▁they	-6.28683
▁đang	-6.29083
▁vào	-6.31516
▁gì	-6.31927
▁be	-6.32616
▁what	-6.32754
▁lại	-6.33449
▁cách	-6.34995
▁about	-6.36278
▁rất	-6.39338
▁thấy	-6.39486
▁my	-6.39931
▁hơn	-6.42493
▁not	-6.43106
▁con	-6.44187
▁đầu	-6.44654
▁as	-6.46068
▁vì	-6.46544
▁nhiều	-6.46703
▁cả	-6.47022
▁all	-6.4912
▁thực	-6.49447
▁khác	-6.50104
▁at	-6.51097
▁đây	-6.51765
▁trên	-6.52606
▁like	-6.53284
▁from	-6.53796
▁học	-6.53967
▁cái	-6.54999
▁so	-6.54999
▁people	-6.55868
▁chỉ	-6.56569
▁công	-6.57807
▁an	-6.58342
▁Chúng	-6.5906
▁one	-6.5906
▁bị	-6.60329
▁đi	-6.63293
▁biết	-6.64237
▁nào	-6.64427
▁but	-6.64617
▁nghĩ	-6.65382
▁năm	-6.65382
▁just	-6.70098
▁cũng	-6.70299
▁it's	-6.70703
▁thành	-6.7213
▁thứ	-6.72748
▁nhà	-6.73787
▁mình	-6.74415
▁số	-6.77184
▁muốn	-6.77834
▁these	-6.77834
▁our	-6.78927
▁me	-6.79147
▁nhưng	-6.79147
▁out	-6.81826
▁them	-6.82964
▁The	-6.83422
▁by	-6.84114
▁But	-6.85278
▁or	-6.85513
▁quan	-6.85984
▁nhất	-6.87648
▁chính	-6.87888
▁1	-6.8837
▁động	-6.88612
▁there	-6.88855
▁very	-6.89098
▁were	-6.90076
▁tạo	-6.90322
▁giới	-6.90815
▁vậy	-6.90815
▁if	-6.91312
▁when	-6.91561
▁because	-6.92563
▁up	-6.92815
▁Nhưng	-6.93068
▁sống	-6.93068
▁more	-6.93831
▁your	-6.93831
▁their	-6.94086
▁had	-6.94599
▁think	-6.94599
▁We	-6.95373
▁mọi	-6.97203
▁nên	-6.97203
▁tại	-6.98531
▁nhận	-6.99067
▁going	-6.99337
▁cần	-7.00149
▁còn	-7.01241
▁tự	-7.02904
▁cuộc	-7.03183
▁ông	-7.03745
▁bắt	-7.04027
▁ấy	-7.0431
▁nếu	-7.0545
▁sau	-7.0545
▁hiện	-7.05737
▁who	-7.05737
▁giờ	-7.06024
▁hình	-7.06024
▁see	-7.06024
▁gia	-7.06313
▁cùng	-7.07184
▁hay	-7.08357
▁how	-7.08652
▁know	-7.08949
▁really	-7.09544
▁tới	-7.09544
▁anh	-7.10143
▁us	-7.10143
▁he	-7.10443
▁tất	-7.10745
▁bởi	-7.11351
▁which	-7.12267
▁đề	-7.12574
▁cảm	-7.12883
▁nhân	-7.12883
▁would	-7.13813
▁get	-7.14438
▁lên	-7.14438
▁sao	-7.14438
▁then	-7.14438
▁tin	-7.14752
▁I'm	-7.15067
▁bằng	-7.15383
▁dụng	-7.15383
▁thì	-7.16018
▁theo	-7.16337
▁trở	-7.17623
▁chuyện	-7.18926
▁lớn	-7.18926
▁nhìn	-7.19254
▁thật	-7.19254
▁câu	-7.21584
▁bản	-7.22599
▁thời	-7.22599
▁years	-7.22599
▁ngày	-7.2294
▁ý	-7.23281
▁time	-7.23625
▁way	-7.23969
▁This	-7.24661
▁thông	-7.25358
▁toàn	-7.25358
▁bộ	-7.26766
▁nhau	-7.26766
▁nơi	-7.26766
▁phát	-7.27121
▁trước	-7.27121
▁nhiên	-7.27478
▁sinh	-7.27836
▁tế	-7.28555
▁nước	-7.28917
▁định	-7.2928
▁It	-7.29644
▁tìm	-7.29644
▁could	-7.3001
▁vật	-7.3001
▁actually	-7.30377
▁qua	-7.30377
▁cơ	-7.30745
▁don't	-7.30745
▁phần	-7.30745
▁trường	-7.30745
▁tốt	-7.32607
▁world	-7.32607
▁will	-7.32984
▁here	-7.33362
▁It's	-7.33741
▁has	-7.33741
▁tưởng	-7.33741
▁thay	-7.34122
▁go	-7.34505
▁into	-7.34505
▁Đây	-7.34505
▁ảnh	-7.34505
▁mới	-7.35274
▁vấn	-7.36049
▁đổi	-7.36439
▁some	-7.38014
▁want	-7.38014
▁Nó	-7.38412
▁where	-7.38412
▁You	-7.38811
▁năng	-7.39212
▁rồi	-7.39212
▁;	-7.40831
▁tính	-7.4124
▁hỏi	-7.41651
▁other	-7.42063
▁first	-7.42477
▁Bạn	-7.42893
▁Đó	-7.43311
▁things	-7.44151
▁Now	-7.44574
▁hành	-7.44574
▁trình	-7.44574
▁hệ	-7.44998
▁máy	-7.44998
▁no	-7.44998
▁than	-7.44998
▁đồng	-7.44998
▁cô	-7.46283
▁said	-7.46283
▁sử	-7.46283
▁hàng	-7.46715
▁tiên	-7.46715
▁gian	-7.47149
▁kết	-7.47149
▁trẻ	-7.47149
▁hội	-7.48022
▁something	-7.48022
▁hoá	-7.48903
▁trọng	-7.48903
▁nữa	-7.49347
▁thiết	-7.49792
▁now	-7.51141
▁liệu	-7.51594
▁loại	-7.5205
▁bất	-7.52507
▁ai	-7.52967
▁Vì	-7.54359
▁that's	-7.54359
▁la	-7.54828
▁xem	-7.54828
▁hợp	-7.55298
▁thường	-7.55298
▁tiếp	-7.55771
▁life	-7.56246
▁make	-7.56246
▁been	-7.56723
▁much	-7.56723
▁bệnh	-7.57203
▁his	-7.57203
▁giải	-7.58169
▁hai	-7.58656
▁lần	-7.58656
▁mặt	-7.59145
▁those	-7.59145
▁đối	-7.59145
▁thích	-7.59636
▁thức	-7.59636
▁vài	-7.6013
▁only	-7.60626
▁hiểu	-7.61125
▁lý	-7.62637
▁she	-7.62637
▁viên	-7.62637
▁giống	-7.63145
▁sáng	-7.63145
▁đều	-7.63145
▁Một	-7.63657
▁work	-7.63657
▁two	-7.64171
▁bao	-7.64688
▁say	-7.64688
▁back	-7.6573
▁kinh	-7.66254
▁thing	-7.66254
▁her	-7.66782
▁They	-7.67313
▁vẫn	-7.67313
▁nhỏ	-7.67846
▁điểm	-7.67846
▁need	-7.69463
▁đưa	-7.69463
▁gọi	-7.70008
▁Có	-7.70556
▁biệt	-7.70556
▁nay	-7.70556
▁also	-7.71107
▁most	-7.71107
▁tác	-7.71107
▁vị	-7.71107
▁quá	-7.71661
▁In	-7.72218
▁cứu	-7.72779
▁giúp	-7.72779
▁lượng	-7.72779
▁over	-7.72779
▁dân	-7.73342
▁you're	-7.73342
▁nghĩa	-7.73908
▁even	-7.74478
▁little	-7.74478
▁xảy	-7.74478
▁em	-7.75051
▁got	-7.75051
▁right	-7.75051
▁tương	-7.75051
▁tâm	-7.75628
▁đại	-7.76207
▁nữ	-7.76791
▁quả	-7.77377
▁đường	-7.77377
▁chiếc	-7.77967
▁mỗi	-7.77967
▁thống	-7.77967
▁different	-7.7856
▁phụ	-7.7856
▁quyết	-7.7856
▁lực	-7.79157
▁take	-7.79157
▁ăn	-7.79758
▁hoàn	-7.80362
▁lúc	-7.80362
▁độ	-7.80362
▁tình	-7.8097
▁look	-7.82197
▁cao	-7.82816
▁many	-7.83439
▁tiến	-7.83439
▁new	-7.84066
▁nghe	-7.84697
▁tuyệt	-7.84697
▁we're	-7.84697
▁Họ	-7.85971
▁chuyển	-7.85971
▁every	-7.85971
▁hoặc	-7.85971
▁khoảng	-7.85971
▁trị	-7.85971
▁từng	-7.85971
▁kế	-7.86614
▁Những	-7.87262
▁Nếu	-7.87262
▁nghiệm	-7.87262
▁around	-7.87913
▁bên	-7.87913
▁ơn	-7.87913
▁nghệ	-7.88569
▁bà	-7.89229
▁did	-7.89229
▁kind	-7.89229
▁đất	-7.89229
▁cá	-7.89893
▁hết	-7.89893
▁triển	-7.89893
▁Vậy	-7.90562
▁thuật	-7.90562
▁What	-7.91914
▁come	-7.91914
▁dùng	-7.91914
▁good	-7.91914
▁ngay	-7.91914
▁xe	-7.92596
▁10	-7.93976
▁lời	-7.93976
▁doing	-7.94672
▁mang	-7.94672
▁chất	-7.96081
▁cố	-7.96081
▁hãy	-7.96081
▁tiền	-7.96081
▁use	-7.96081
▁down	-7.96793
▁nghiên	-7.96793
▁lot	-7.97509
▁phòng	-7.97509
▁there's	-7.97509
▁yêu	-7.97509
▁Điều	-7.97509
▁bình	-7.98232
▁diễn	-7.98232
▁tượng	-7.98232
▁khoa	-7.98959
▁trung	-7.98959
▁If	-7.99691
▁cầu	-7.99691
▁tuổi	-7.99691
▁Khi	-8.00429
▁bảo	-8.00429
▁chưa	-8.00429
▁they're	-8.01173
▁He	-8.01922
▁bé	-8.01922
▁bỏ	-8.01922
▁cứ	-8.01922
▁gần	-8.01922
▁tiếng	-8.01922
▁điện	-8.01922
▁đặt	-8.01922
▁đời	-8.01922
▁Anh	-8.02677
▁minh	-8.02677
▁đơn	-8.02677
▁being	-8.03437
▁kể	-8.03437
▁trả	-8.03437
▁bài	-8.04203
▁giáo	-8.04203
▁any	-8.05754
▁chọn	-8.05754
▁Mỹ	-8.06538
▁Well	-8.06538
▁quyền	-8.06538
▁sản	-8.06538
▁xuất	-8.06538
▁called	-8.07329
▁giá	-8.07329
▁khó	-8.07329
▁through	-8.07329
▁I've	-8.08125
▁chủ	-8.08125
▁dẫn	-8.08125
▁hiệu	-8.08125
▁tell	-8.08125
▁chơi	-8.08929
▁dựng	-8.08929
▁nghiệp	-8.08929
▁phẩm	-8.08929
▁ứng	-8.08929
▁day	-8.09738
▁dự	-8.09738
▁three	-8.09738
▁bào	-8.10555
▁same	-8.10555
▁giữa	-8.11378
▁pháp	-8.11378
▁put	-8.11378
▁xã	-8.11378
▁cuối	-8.12208
▁khả	-8.12208
▁made	-8.12208
▁não	-8.12208
▁tập	-8.12208
▁đặc	-8.13045
▁bức	-8.13888
▁sức	-8.13888
▁vô	-8.13888
▁xây	-8.13888
▁đình	-8.13888
▁Không	-8.14739
▁hoạt	-8.14739
▁sách	-8.14739
▁truyền	-8.14739
▁viết	-8.14739
▁may	-8.15598
▁phương	-8.15598
▁thân	-8.15598
▁thú	-8.15598
▁change	-8.16464
▁chí	-8.16464
▁find	-8.16464
▁talk	-8.16464
▁today	-8.17337
▁why	-8.17337
▁biến	-8.18218
▁chết	-8.18218
▁tay	-8.18218
▁!	-8.19107
▁Trong	-8.19107
▁didn't	-8.19107
▁loài	-8.19107
▁lấy	-8.19107
▁cộng	-8.20004
▁màu	-8.20004
▁phân	-8.20909
▁đứa	-8.20909
▁him	-8.21822
▁mạnh	-8.21822
▁tranh	-8.21822
▁tử	-8.21822
▁hướng	-8.22744
▁important	-8.22744
▁kỳ	-8.22744
▁liên	-8.22744
▁phố	-8.22744
▁together	-8.22744
▁That's	-8.23674
▁khỏi	-8.23674
▁mất	-8.23674
▁ngoài	-8.23674
▁still	-8.23674
▁There	-8.24613
▁percent	-8.24613
▁vùng	-8.24613
▁văn	-8.24613
▁án	-8.24613
▁di	-8.25561
▁tiêu	-8.25561
▁tư	-8.25561
▁Thank	-8.26518
▁dụ	-8.26518
▁human	-8.26518
▁quanh	-8.26518
▁vời	-8.26518
▁year	-8.26518
▁đồ	-8.26518
▁Các	-8.27484
▁chứng	-8.27484
▁lập	-8.27484
▁mạng	-8.27484
▁next	-8.27484
▁thought	-8.27484
▁tên	-8.27484
▁-	-8.2846
▁cấp	-8.2846
▁own	-8.2846
▁triệu	-8.2846
▁đấy	-8.2846
▁2	-8.29445
▁kiến	-8.29445
▁trí	-8.29445
▁xác	-8.29445
▁idea	-8.3044
▁quốc	-8.3044
▁brain	-8.31445
▁gắng	-8.31445
▁tháng	-8.31445
▁tinh	-8.31445
▁tài	-8.31445
▁âm	-8.31445
▁after	-8.3246
▁ba	-8.3246
▁chức	-8.3246
▁great	-8.3246
▁luôn	-8.3246
▁mẹ	-8.3246
▁vụ	-8.3246
▁đàn	-8.3246
▁đúng	-8.3246
▁ago	-8.33486
▁before	-8.33486
▁chia	-8.33486
▁nhanh	-8.33486
▁phá	-8.33486
▁20	-8.34522
▁Trung	-8.34522
▁chẳng	-8.34522
▁mô	-8.34522
▁never	-8.34522
▁xuống	-8.34522
▁big	-8.35569
▁came	-8.35569
▁part	-8.35569
▁start	-8.35569
▁tham	-8.35569
▁chiến	-8.36627
▁cụ	-8.36627
▁giả	-8.36627
▁mở	-8.36627
▁nền	-8.36627
▁suy	-8.36627
▁xa	-8.36627
▁đáng	-8.36627
▁Hãy	-8.37697
▁again	-8.37697
▁give	-8.37697
▁lẽ	-8.37697
▁tăng	-8.37697
▁đẹp	-8.37697
▁better	-8.38778
▁children	-8.38778
▁chắc	-8.38778
▁few	-8.38778
▁problem	-8.38778
▁Ông	-8.38778
▁đâu	-8.38778
▁Quốc	-8.39871
▁between	-8.39871
▁dễ	-8.39871
▁mẫu	-8.39871
▁mức	-8.39871
▁started	-8.39871
▁trò	-8.39871
▁Thế	-8.40976
▁able	-8.40976
▁last	-8.40976
▁...	-8.42093
▁Because	-8.42093
▁another	-8.42093
▁bay	-8.42093
▁khiến	-8.42093
▁live	-8.42093
▁nguyên	-8.42093
▁story	-8.42093
▁too	-8.42093
▁tổ	-8.42093
▁vi	-8.42093
▁well	-8.42093
▁went	-8.42093
▁ít	-8.42093
▁báo	-8.43223
▁dưới	-8.43223
▁gái	-8.43223
▁might	-8.43223
▁thu	-8.43223
▁đoạn	-8.43223
▁3	-8.44366
▁New	-8.44366
▁chút	-8.44366
▁cảnh	-8.44366
▁fact	-8.44366
▁sư	-8.44366
▁thử	-8.44366
▁vệ	-8.44366
▁đạo	-8.44366
▁Bởi	-8.45522
▁dù	-8.45522
▁giản	-8.45522
▁phép	-8.45522
▁thần	-8.45522
▁vòng	-8.45522
▁vọng	-8.45522
▁TED	-8.46692
▁càng	-8.46692
▁found	-8.46692
▁gặp	-8.46692
▁looking	-8.46692
▁nhớ	-8.46692
▁question	-8.46692
▁vũ	-8.46692
▁can't	-8.47875
▁course	-8.47875
▁giác	-8.47875
▁water	-8.47875
▁chế	-8.49073
▁cây	-8.49073
▁nguồn	-8.49073
▁phía	-8.49073
▁rõ	-8.49073
▁should	-8.49073
▁women	-8.49073
▁A	-8.50285
▁away	-8.50285
▁bit	-8.50285
▁done	-8.50285
▁its	-8.50285
▁khu	-8.50285
▁khá	-8.50285
▁lòng	-8.50285
▁sát	-8.50285
▁sĩ	-8.50285
▁trang	-8.50285
▁bóng	-8.51512
▁kiếm	-8.51512
▁love	-8.51512
▁phục	-8.51512
▁thuốc	-8.51512
▁thị	-8.51512
▁%	-8.52754
▁become	-8.52754
▁off	-8.52754
▁bây	-8.54012
▁giao	-8.54012
▁gây	-8.54012
▁kì	-8.54012
▁phủ	-8.54012
▁quay	-8.54012
▁đánh	-8.54012
▁Cảm	-8.55286
▁When	-8.55286
▁cực	-8.55286
▁system	-8.55286
▁Tại	-8.56576
▁am	-8.56576
▁help	-8.56576
▁lệ	-8.56576
▁mean	-8.56576
▁small	-8.56576
▁My	-8.57884
▁Tất	-8.57884
▁biểu	-8.57884
▁call	-8.57884
▁doesn't	-8.57884
▁dữ	-8.57884
▁ever	-8.57884
▁everything	-8.57884
▁home	-8.57884
▁information	-8.57884
▁means	-8.57884
▁money	-8.57884
▁sợ	-8.57884
▁tục	-8.57884
▁vực	-8.57884
▁wanted	-8.57884
▁đầy	-8.57884
▁dục	-8.59208
▁end	-8.59208
▁kiểm	-8.59208
▁phản	-8.59208
▁understand	-8.59208
▁Why	-8.6055
▁does	-8.6055
▁duy	-8.6055
▁each	-8.6055
▁khí	-8.6055
▁lợi	-8.6055
▁nhạc	-8.6055
▁phim	-8.6055
▁show	-8.6055
▁ty	-8.6055
▁used	-8.6055
▁vẻ	-8.6055
▁đứng	-8.6055
▁chú	-8.61911
▁family	-8.61911
▁four	-8.61911
▁giảm	-8.61911
▁kids	-8.61911
▁school	-8.61911
▁thuyết	-8.61911
▁thêm	-8.61911
▁thư	-8.61911
▁đôi	-8.61911
▁địa	-8.61911
▁believe	-8.6329
▁cửa	-8.6329
▁hôm	-8.6329
▁hưởng	-8.6329
▁ngồi	-8.6329
▁thoại	-8.6329
▁working	-8.6329
▁Bây	-8.64689
▁How	-8.64689
▁chắn	-8.64689
▁dài	-8.64689
▁dịch	-8.64689
▁luận	-8.64689
▁trông	-8.64689
▁old	-8.66107
▁place	-8.66107
▁sai	-8.66107
▁trái	-8.66107
▁trăm	-8.66107
▁50	-8.67546
▁always	-8.67546
▁diện	-8.67546
▁feel	-8.67546
▁real	-8.67546
▁vừa	-8.67546
▁30	-8.69006
▁Internet	-8.69006
▁bước	-8.69006
▁create	-8.69006
▁căn	-8.69006
▁doanh	-8.69006
▁kỹ	-8.69006
▁lai	-8.69006
▁ngữ	-8.69006
▁thôi	-8.69006
▁thương	-8.69006
▁thậm	-8.69006
▁ví	-8.69006
▁xung	-8.69006
▁bán	-8.70488
▁food	-8.70488
▁let	-8.70488
▁space	-8.70488
▁sâu	-8.70488
▁trai	-8.70488
▁đọc	-8.70488
▁men	-8.71991
▁sẻ	-8.71991
▁sở	-8.71991
▁One	-8.73518
▁We're	-8.73518
▁data	-8.73518
▁kia	-8.73518
▁li	-8.73518
▁long	-8.73518
▁million	-8.73518
▁thúc	-8.73518
▁took	-8.73518
▁trying	-8.73518
▁tồn	-8.73518
▁ánh	-8.73518
▁chương	-8.75069
▁cuốn	-8.75069
▁mắt	-8.75069
▁nhóm	-8.75069
▁sort	-8.75069
▁technology	-8.75069
▁trụ	-8.75069
▁xanh	-8.75069
▁xét	-8.75069
▁I'd	-8.76643
▁That	-8.76643
▁hầu	-8.76643
▁mua	-8.76643
▁môi	-8.76643
▁person	-8.76643
▁point	-8.76643
▁trải	-8.76643
▁trời	-8.76643
▁100	-8.78243
▁15	-8.78243
▁country	-8.78243
▁dạng	-8.78243
▁example	-8.78243
▁giữ	-8.78243
▁kẻ	-8.78243
▁lives	-8.78243
▁lựa	-8.78243
▁maybe	-8.78243
▁mục	-8.78243
▁nạn	-8.78243
▁quy	-8.78243
▁riêng	-8.78243
▁tối	-8.78243
▁we've	-8.78243
▁dành	-8.79869
▁mặc	-8.79869
▁phút	-8.79869
▁tra	-8.79869
▁These	-8.81522
▁York	-8.81522
▁city	-8.81522
▁five	-8.81522
▁job	-8.81522
▁nhiêu	-8.81522
▁nối	-8.81522
▁nổi	-8.81522
▁thiên	-8.81522
▁toán	-8.81522
▁vui	-8.81522
▁y	-8.81522
▁5	-8.83203
▁All	-8.83203
▁asked	-8.83203
▁chụp	-8.83203
▁countries	-8.83203
▁moment	-8.83203
▁ngôi	-8.83203
▁thuộc	-8.83203
▁tích	-8.83203
▁vận	-8.83203
▁Ở	-8.83203
▁build	-8.84913
▁man	-8.84913
▁ngạc	-8.84913
▁number	-8.84913
▁saw	-8.84913
▁sắc	-8.84913
▁thanh	-8.84913
▁tiết	-8.84913
▁try	-8.84913
▁tạp	-8.84913
▁whole	-8.84913
▁đạt	-8.84913
▁bạo	-8.86652
▁kiểu	-8.86652
▁phí	-8.86652
▁room	-8.86652
▁social	-8.86652
▁tỉ	-8.86652
▁without	-8.86652
▁đủ	-8.86652
▁Cái	-8.88422
▁Người	-8.88422
▁Vâng	-8.88422
▁best	-8.88422
▁bố	-8.88422
▁chuyên	-8.88422
▁chuẩn	-8.88422
▁chứ	-8.88422
▁chữa	-8.88422
▁design	-8.88422
▁dung	-8.88422
▁happened	-8.88422
▁probably	-8.88422
▁problems	-8.88422
▁ràng	-8.88422
▁rộng	-8.88422
▁độc	-8.88422
▁Do	-8.90224
▁Thật	-8.90224
▁future	-8.90224
▁khắc	-8.90224
▁left	-8.90224
▁phạm	-8.90224
▁pretty	-8.90224
▁yếu	-8.90224
▁There's	-8.92058
▁cells	-8.92058
▁chân	-8.92058
▁chạy	-8.92058
▁light	-8.92058
▁luật	-8.92058
▁lạ	-8.92058
▁lịch	-8.92058
▁makes	-8.92058
▁process	-8.92058
▁project	-8.92058
▁thiếu	-8.92058
▁xin	-8.92058
▁across	-8.93928
▁chi	-8.93928
▁happens	-8.93928
▁hard	-8.93928
▁hề	-8.93928
▁khám	-8.93928
▁learn	-8.93928
▁less	-8.93928
▁lớp	-8.93928
▁making	-8.93928
▁thí	-8.93928
▁toà	-8.93928
▁tuần	-8.93928
▁xử	-8.93928
▁&#91;	-8.95833
▁&#93;	-8.95833
▁4	-8.95833
▁They're	-8.95833
▁chỗ	-8.95833
▁community	-8.95833
▁danh	-8.95833
▁energy	-8.95833
▁hộ	-8.95833
▁khăn	-8.95833
▁myself	-8.95833
▁mối	-8.95833
▁nhập	-8.95833
▁second	-8.95833
▁trạng	-8.95833
▁using	-8.95833
▁video	-8.95833
▁viện	-8.95833
▁ask	-8.97774
▁buổi	-8.97774
▁bàn	-8.97774
▁chung	-8.97774
▁châu	-8.97774
▁cung	-8.97774
▁dạy	-8.97774
▁half	-8.97774
▁high	-8.97774
▁hồi	-8.97774
▁khoẻ	-8.97774
▁khắp	-8.97774
▁kỷ	-8.97774
▁nỗi	-8.97774
▁saying	-8.97774
▁says	-8.97774
▁suốt	-8.97774
▁talking	-8.97774
▁tấm	-8.97774
▁word	-8.97774
▁young	-8.97774
▁đau	-8.97774
▁Oh	-8.99755
▁Phi	-8.99755
▁chịu	-8.99755
▁coming	-8.99755
▁da	-8.99755
▁else	-8.99755
▁giết	-8.99755
▁months	-8.99755
▁phi	-8.99755
▁piece	-8.99755
▁power	-8.99755
▁single	-8.99755
▁times	-8.99755
▁trúc	-8.99755
▁ích	-8.99755
▁đoán	-8.99755
▁đóng	-8.99755
▁/	-9.01775
▁experience	-9.01775
▁game	-9.01775
▁hoà	-9.01775
▁hạnh	-9.01775
▁later	-9.01775
▁ngoại	-9.01775
▁ngôn	-9.01775
▁someone	-9.01775
▁ways	-9.01775
▁đợi	-9.01775
▁Sự	-9.03837
▁anything	-9.03837
▁lâu	-9.03837
▁ngành	-9.03837
▁sense	-9.03837
▁thập	-9.03837
▁trợ	-9.03837
▁For	-9.05942
▁answer	-9.05942
▁ban	-9.05942
▁biển	-9.05942
▁far	-9.05942
▁government	-9.05942
▁happen	-9.05942
▁heard	-9.05942
▁living	-9.05942
▁lưu	-9.05942
▁ngủ	-9.05942
▁sang	-9.05942
▁tệ	-9.05942
▁tức	-9.05942
▁woman	-9.05942
▁yet	-9.05942
▁As	-9.08093
▁Sau	-9.08093
▁building	-9.08093
▁cổ	-9.08093
▁dây	-9.08093
▁gửi	-9.08093
▁hát	-9.08093
▁hạn	-9.08093
▁kiện	-9.08093
▁music	-9.08093
▁ngược	-9.08093
▁run	-9.08093
▁science	-9.08093
▁since	-9.08093
▁thi	-9.08093
▁thinking	-9.08093
▁though	-9.08093
▁thái	-9.08093
▁tội	-9.08093
▁while	-9.08093
▁đô	-9.08093
▁La	-9.10291
▁Nên	-9.10291
▁dấu	-9.10291
▁hiểm	-9.10291
▁imagine	-9.10291
▁looked	-9.10291
▁nhiệm	-9.10291
▁nằm	-9.10291
▁side	-9.10291
▁told	-9.10291
▁vẽ	-9.10291
▁what's	-9.10291
▁you've	-9.10291
▁Thực	-9.12538
▁business	-9.12538
▁case	-9.12538
▁cánh	-9.12538
▁days	-9.12538
▁decided	-9.12538
▁having	-9.12538
▁health	-9.12538
▁ideas	-9.12538
▁khủng	-9.12538
▁matter	-9.12538
▁nghi	-9.12538
▁phúc	-9.12538
▁stories	-9.12538
▁sắp	-9.12538
▁sẵn	-9.12538
▁wrong	-9.12538
▁Châu	-9.14837
▁I'll	-9.14837
▁United	-9.14837
▁billion	-9.14837
▁bầu	-9.14837
▁comes	-9.14837
▁cấu	-9.14837
▁cậu	-9.14837
▁face	-9.14837
▁giai	-9.14837
▁hoạch	-9.14837
▁inside	-9.14837
▁khiển	-9.14837
▁kích	-9.14837
▁minutes	-9.14837
▁mảnh	-9.14837
▁nothing	-9.14837
▁nửa	-9.14837
▁six	-9.14837
▁trưởng	-9.14837
▁tận	-9.14837
▁vượt	-9.14837
▁words	-9.14837
▁đa	-9.14837
▁đem	-9.14837
▁đội	-9.14837
▁Cô	-9.1719
▁became	-9.1719
▁cạnh	-9.1719
▁enough	-9.1719
▁getting	-9.1719
▁ghi	-9.1719
▁lãnh	-9.1719
▁lí	-9.1719
▁mã	-9.1719
▁mật	-9.1719
▁mắc	-9.1719
▁news	-9.1719
▁nguy	-9.1719
▁niệm	-9.1719
▁often	-9.1719
▁once	-9.1719
▁phóng	-9.1719
▁picture	-9.1719
▁top	-9.1719
▁whether	-9.1719
▁Ý	-9.1719
▁Bắc	-9.196
▁Google	-9.196
▁Làm	-9.196
▁beautiful	-9.196
▁both	-9.196
▁cha	-9.196
▁chiều	-9.196
▁company	-9.196
▁computer	-9.196
▁dần	-9.196
▁entire	-9.196
▁he's	-9.196
▁interesting	-9.196
▁kéo	-9.196
▁lắng	-9.196
▁lỗi	-9.196
▁niềm	-9.196
▁seen	-9.196
▁simple	-9.196
▁sure	-9.196
▁tổng	-9.196
▁đêm	-9.196
▁đỡ	-9.196
▁12	-9.22069
▁Okay	-9.22069
▁States	-9.22069
▁basically	-9.22069
▁child	-9.22069
▁chống	-9.22069
▁chữ	-9.22069
▁couple	-9.22069
▁cư	-9.22069
▁gắn	-9.22069
▁hơi	-9.22069
▁hậu	-9.22069
▁hứng	-9.22069
▁learned	-9.22069
▁ngờ	-9.22069
▁planet	-9.22069
▁read	-9.22069
▁reason	-9.22069
▁remember	-9.22069
▁robot	-9.22069
▁tàu	-9.22069
▁xấu	-9.22069
▁Để	-9.22069
▁&amp;	-9.24601
▁60	-9.24601
▁Chỉ	-9.24601
▁Giờ	-9.24601
▁No	-9.24601
▁North	-9.24601
▁Từ	-9.24601
▁dòng	-9.24601
▁dầu	-9.24601
▁house	-9.24601
▁hoạ	-9.24601
▁hữu	-9.24601
▁kinds	-9.24601
▁mong	-9.24601
▁play	-9.24601
▁set	-9.24601
▁such	-9.24601
▁turn	-9.24601
▁tắc	-9.24601
▁tỷ	-9.24601
▁ung	-9.24601
▁đẩy	-9.24601
▁Africa	-9.27198
▁age	-9.27198
▁almost	-9.27198
▁animals	-9.27198
▁car	-9.27198
▁control	-9.27198
▁disease	-9.27198
▁goes	-9.27198
▁grow	-9.27198
▁hours	-9.27198
▁khách	-9.27198
▁kính	-9.27198
▁kĩ	-9.27198
▁lạc	-9.27198
▁mother	-9.27198
▁nội	-9.27198
▁open	-9.27198
▁quite	-9.27198
▁thẳng	-9.27198
▁trao	-9.27198
▁tắt	-9.27198
▁universe	-9.27198
▁wasn't	-9.27198
▁within	-9.27198
▁đột	-9.27198
▁Ấn	-9.27198
▁Tây	-9.29865
▁biên	-9.29865
▁body	-9.29865
▁băng	-9.29865
▁cháu	-9.29865
▁chị	-9.29865
▁friends	-9.29865
▁head	-9.29865
▁lĩnh	-9.29865
▁machine	-9.29865
▁nhiệt	-9.29865
▁thơ	-9.29865
▁thất	-9.29865
▁tim	-9.29865
▁tải	-9.29865
▁tầm	-9.29865
▁áp	-9.29865
▁ẩn	-9.29865
▁6	-9.32605
▁Afghanistan	-9.32605
▁America	-9.32605
▁Rồi	-9.32605
▁TV	-9.32605
▁bad	-9.32605
▁chuyến	-9.32605
▁cập	-9.32605
▁dollars	-9.32605
▁giấy	-9.32605
▁gốc	-9.32605
▁knew	-9.32605
▁language	-9.32605
▁lots	-9.32605
▁lầm	-9.32605
▁move	-9.32605
▁nam	-9.32605
▁night	-9.32605
▁outside	-9.32605
▁possible	-9.32605
▁state	-9.32605
▁themselves	-9.32605
▁trực	-9.32605
▁works	-9.32605
▁xuyên	-9.32605
▁7	-9.35422
▁Yeah	-9.35422
▁amazing	-9.35422
▁book	-9.35422
▁bánh	-9.35422
▁care	-9.35422
▁cận	-9.35422
▁cắt	-9.35422
▁cử	-9.35422
▁dừng	-9.35422
▁environment	-9.35422
▁hand	-9.35422
▁hope	-9.35422
▁hồ	-9.35422
▁let's	-9.35422
▁looks	-9.35422
▁nature	-9.35422
▁ngắn	-9.35422
▁phức	-9.35422
▁research	-9.35422
▁takes	-9.35422
▁taking	-9.35422
▁thủ	-9.35422
▁xếp	-9.35422
▁đen	-9.35422
▁đấu	-9.35422
▁American	-9.38321
▁Con	-9.38321
▁Như	-9.38321
▁She	-9.38321
▁Xin	-9.38321
▁bác	-9.38321
▁culture	-9.38321
▁gave	-9.38321
▁global	-9.38321
▁guy	-9.38321
▁khái	-9.38321
▁line	-9.38321
▁lo	-9.38321
▁lái	-9.38321
▁môn	-9.38321
▁mềm	-9.38321
▁nghèo	-9.38321
▁places	-9.38321
▁share	-9.38321
▁trừ	-9.38321
▁tấn	-9.38321
▁vai	-9.38321
▁web	-9.38321
▁worked	-9.38321
▁đông	-9.38321
▁At	-9.41306
▁China	-9.41306
▁John	-9.41306
▁Mọi	-9.41306
▁already	-9.41306
▁behind	-9.41306
▁bốn	-9.41306
▁cân	-9.41306
▁cải	-9.41306
▁dựa	-9.41306
▁giàu	-9.41306
▁huge	-9.41306
▁leave	-9.41306
▁lắm	-9.41306
▁mái	-9.41306
▁nghiêm	-9.41306
▁nghị	-9.41306
▁nuôi	-9.41306
▁particular	-9.41306
▁questions	-9.41306
▁quý	-9.41306
▁quản	-9.41306
▁somebody	-9.41306
▁sóng	-9.41306
▁thấp	-9.41306
▁tường	-9.41306
▁Âu	-9.41306
▁đá	-9.41306
▁đèn	-9.41306
▁ảo	-9.41306
▁ấn	-9.41306
▁Earth	-9.44383
▁Nam	-9.44383
▁People	-9.44383
▁South	-9.44383
▁bring	-9.44383
▁cell	-9.44383
▁chấp	-9.44383
▁chứa	-9.44383
▁coi	-9.44383
▁completely	-9.44383
▁cười	-9.44383
▁easy	-9.44383
▁eat	-9.44383
▁gets	-9.44383
▁gấp	-9.44383
▁gồm	-9.44383
▁happy	-9.44383
▁here's	-9.44383
▁hy	-9.44383
▁hạ	-9.44383
▁individual	-9.44383
▁keep	-9.44383
▁khai	-9.44383
▁learning	-9.44383
▁name	-9.44383
▁ngăn	-9.44383
▁nhiễm	-9.44383
▁nhờ	-9.44383
▁ones	-9.44383
▁others	-9.44383
▁study	-9.44383
▁thiệu	-9.44383
▁thụ	-9.44383
▁tờ	-9.44383
▁xúc	-9.44383
▁Độ	-9.44383
▁đảo	-9.44383
▁—	-9.44383
▁40	-9.47558
▁Còn	-9.47558
▁To	-9.47558
▁Trước	-9.47558
▁along	-9.47558
▁black	-9.47558
▁chó	-9.47558
▁cáo	-9.47558
▁cũ	-9.47558
▁everyone	-9.47558
▁felt	-9.47558
▁finally	-9.47558
▁free	-9.47558
▁group	-9.47558
▁góc	-9.47558
▁hãi	-9.47558
▁hại	-9.47558
▁kền	-9.47558
▁large	-9.47558
▁local	-9.47558
▁material	-9.47558
▁mơ	-9.47558
▁mắn	-9.47558
▁natural	-9.47558
▁niên	-9.47558
▁nô	-9.47558
▁powerful	-9.47558
▁rather	-9.47558
▁society	-9.47558
▁step	-9.47558
▁tuyến	-9.47558
▁tố	-9.47558
▁violence	-9.47558
▁ô	-9.47558
▁điên	-9.47558
▁Chinese	-9.50837
▁OK	-9.50837
▁alone	-9.50837
▁bền	-9.50837
▁cancer	-9.50837
▁communities	-9.50837
▁deal	-9.50837
▁death	-9.50837
▁du	-9.50837
▁dàng	-9.50837
▁education	-9.50837
▁girl	-9.50837
▁guys	-9.50837
▁heart	-9.50837
▁huỷ	-9.50837
▁ký	-9.50837
▁kỉ	-9.50837
▁level	-9.50837
▁mind	-9.50837
▁must	-9.50837
▁mấy	-9.50837
▁nặng	-9.50837
▁perhaps	-9.50837
▁phone	-9.50837
▁quen	-9.50837
▁quần	-9.50837
▁realized	-9.50837
▁rối	-9.50837
▁seems	-9.50837
▁seven	-9.50837
▁sometimes	-9.50837
▁students	-9.50837
▁sàng	-9.50837
▁sân	-9.50837
▁tù	-9.50837
▁tầng	-9.50837
▁understanding	-9.50837
▁until	-9.50837
▁300	-9.54227
▁Nhà	-9.54227
▁Rất	-9.54227
▁You're	-9.54227
▁beyond	-9.54227
▁bày	-9.54227
▁bí	-9.54227
▁ca	-9.54227
▁camera	-9.54227
▁code	-9.54227
▁color	-9.54227
▁difficult	-9.54227
▁diệu	-9.54227
▁dương	-9.54227
▁generation	-9.54227
▁hands	-9.54227
▁loạt	-9.54227
▁lá	-9.54227
▁miễn	-9.54227
▁màn	-9.54227
▁nông	-9.54227
▁oil	-9.54227
▁order	-9.54227
▁patients	-9.54227
▁poor	-9.54227
▁public	-9.54227
▁song	-9.54227
▁soát	-9.54227
▁stuff	-9.54227
▁sửa	-9.54227
▁test	-9.54227
▁thousands	-9.54227
▁thách	-9.54227
▁tái	-9.54227
▁tôn	-9.54227
▁tồi	-9.54227
▁vĩ	-9.54227
▁we'll	-9.54227
▁wonderful	-9.54227
▁wouldn't	-9.54227
▁you'll	-9.54227
▁áo	-9.54227
▁Được	-9.54227
▁80	-9.57736
▁India	-9.57736
▁Los	-9.57736
▁Mỗi	-9.57736
▁Ta	-9.57736
▁Tiên	-9.57736
▁blue	-9.57736
▁boy	-9.57736
▁bò	-9.57736
▁bại	-9.57736
▁changed	-9.57736
▁chủng	-9.57736
▁difference	-9.57736
▁dưỡng	-9.57736
▁everybody	-9.57736
▁eyes	-9.57736
▁figure	-9.57736
▁giỏi	-9.57736
▁hài	-9.57736
▁hảo	-9.57736
▁instead	-9.57736
▁khán	-9.57736
▁loạn	-9.57736
▁mê	-9.57736
▁món	-9.57736
▁ourselves	-9.57736
▁parts	-9.57736
▁phỏng	-9.57736
▁quickly	-9.57736
▁quân	-9.57736
▁rừng	-9.57736
▁siêu	-9.57736
▁species	-9.57736
▁trách	-9.57736
▁weeks	-9.57736
▁điển	-9.57736
▁đám	-9.57736
▁đói	-9.57736
▁đổ	-9.57736
▁25	-9.61373
▁70	-9.61373
▁Ai	-9.61373
▁Câu	-9.61373
▁Let's	-9.61373
▁Ngày	-9.61373
▁Some	-9.61373
▁Tuy	-9.61373
▁Vào	-9.61373
▁area	-9.61373
▁audience	-9.61373
▁began	-9.61373
▁buy	-9.61373
▁chim	-9.61373
▁chỉnh	-9.61373
▁close	-9.61373
▁couldn't	-9.61373
▁during	-9.61373
▁dậy	-9.61373
▁film	-9.61373
▁form	-9.61373
▁given	-9.61373
▁giây	-9.61373
▁images	-9.61373
▁lao	-9.61373
▁lưới	-9.61373
▁model	-9.61373
▁moving	-9.61373
▁mạch	-9.61373
▁needed	-9.61373
▁nguyện	-9.61373
▁nắm	-9.61373
▁okay	-9.61373
▁phù	-9.61373
▁population	-9.61373
▁rest	-9.61373
▁road	-9.61373
▁scale	-9.61373
▁thank	-9.61373
▁tiện	-9.61373
▁true	-9.61373
▁trồng	-9.61373
▁trữ	-9.61373
▁tốc	-9.61373
▁đích	-9.61373
▁8	-9.65147
▁English	-9.65147
▁Here	-9.65147
▁Iran	-9.65147
▁Just	-9.65147
▁Or	-9.65147
▁Then	-9.65147
▁Triều	-9.65147
▁Với	-9.65147
▁air	-9.65147
▁bang	-9.65147
▁built	-9.65147
▁cannot	-9.65147
▁certain	-9.65147
▁created	-9.65147
▁cơn	-9.65147
▁exactly	-9.65147
▁hoa	-9.65147
▁humans	-9.65147
▁hộp	-9.65147
▁incredible	-9.65147
▁khuôn	-9.65147
▁kháng	-9.65147
▁miles	-9.65147
▁máu	-9.65147
▁mẽ	-9.65147
▁needs	-9.65147
▁per	-9.65147
▁perfect	-9.65147
▁phong	-9.65147
▁phổ	-9.65147
▁rơi	-9.65147
▁scientists	-9.65147
▁speak	-9.65147
▁thiện	-9.65147
▁turns	-9.65147
▁tàn	-9.65147
▁tín	-9.65147
▁tộc	-9.65147
▁under	-9.65147
▁view	-9.65147
▁whatever	-9.65147
▁writing	-9.65147
▁Đúng	-9.65147
▁đăng	-9.65147
▁đức	-9.65147
▁ước	-9.65147
▁ống	-9.65147
▁200	-9.69069
▁Bà	-9.69069
▁Cho	-9.69069
▁DNA	-9.69069
▁Europe	-9.69069
▁Ví	-9.69069
▁access	-9.69069
▁against	-9.69069
▁chăm	-9.69069
▁chạm	-9.69069
▁companies	-9.69069
▁developing	-9.69069
▁early	-9.69069
▁ground	-9.69069
▁hear	-9.69069
▁itself	-9.69069
▁killed	-9.69069
▁kiệm	-9.69069
▁kê	-9.69069
▁least	-9.69069
▁longer	-9.69069
▁luyện	-9.69069
▁lối	-9.69069
▁materials	-9.69069
▁ngàn	-9.69069
▁phận	-9.69069
▁political	-9.69069
▁rời	-9.69069
▁save	-9.69069
▁seeing	-9.69069
▁soon	-9.69069
▁systems	-9.69069
▁voi	-9.69069
▁vàng	-9.69069
▁vững	-9.69069
▁walking	-9.69069
▁week	-9.69069
▁xương	-9.69069
▁điệu	-9.69069
▁16	-9.73151
▁Angeles	-9.73151
▁Công	-9.73151
▁Here's	-9.73151
▁Hồi	-9.73151
▁Who	-9.73151
▁animal	-9.73151
▁art	-9.73151
▁attention	-9.73151
▁beginning	-9.73151
▁chóng	-9.73151
▁common	-9.73151
▁costs	-9.73151
▁especially	-9.73151
▁gone	-9.73151
▁happening	-9.73151
▁history	-9.73151
▁indeed	-9.73151
▁khích	-9.73151
▁land	-9.73151
▁listening	-9.73151
▁lost	-9.73151
▁middle	-9.73151
▁millions	-9.73151
▁morning	-9.73151
▁mời	-9.73151
▁ngừng	-9.73151
▁paper	-9.73151
▁parents	-9.73151
▁past	-9.73151
▁shows	-9.73151
▁spend	-9.73151
▁stage	-9.73151
▁stop	-9.73151
▁thoát	-9.73151
▁trắng	-9.73151
▁tả	-9.73151
▁tốn	-9.73151
▁vườn	-9.73151
▁đằng	-9.73151
▁$	-9.77407
▁2000	-9.77407
▁Chính	-9.77407
▁Chúa	-9.77407
▁Em	-9.77407
▁God	-9.77407
▁Hay	-9.77407
▁Right	-9.77407
▁Twitter	-9.77407
▁Yes	-9.77407
▁brought	-9.77407
▁century	-9.77407
▁choices	-9.77407
▁chấm	-9.77407
▁clear	-9.77407
▁creating	-9.77407
▁cà	-9.77407
▁device	-9.77407
▁dường	-9.77407
▁either	-9.77407
▁friend	-9.77407
▁front	-9.77407
▁girls	-9.77407
▁green	-9.77407
▁growth	-9.77407
▁hi	-9.77407
▁hôn	-9.77407
▁hạt	-9.77407
▁hấp	-9.77407
▁khối	-9.77407
▁khởi	-9.77407
▁kém	-9.77407
▁lẫn	-9.77407
▁nice	-9.77407
▁numbers	-9.77407
▁opportunity	-9.77407
▁phê	-9.77407
▁quảng	-9.77407
▁sitting	-9.77407
▁solution	-9.77407
▁sạch	-9.77407
▁sớm	-9.77407
▁team	-9.77407
▁tools	-9.77407
▁tried	-9.77407
▁trưng	-9.77407
▁tổn	-9.77407
▁walk	-9.77407
▁war	-9.77407
▁written	-9.77407
▁14	-9.81853
▁24	-9.81853
▁Cuối	-9.81853
▁What's	-9.81853
▁absolutely	-9.81853
▁areas	-9.81853
▁buộc	-9.81853
▁bảng	-9.81853
▁chiếu	-9.81853
▁chảy	-9.81853
▁chờ	-9.81853
▁cầm	-9.81853
▁developed	-9.81853
▁domestic	-9.81853
▁feeling	-9.81853
▁giám	-9.81853
▁gợi	-9.81853
▁heh	-9.81853
▁hổ	-9.81853
▁image	-9.81853
▁khoản	-9.81853
▁khuẩn	-9.81853
▁knowledge	-9.81853
▁kịch	-9.81853
▁led	-9.81853
▁lửa	-9.81853
▁mưa	-9.81853
▁nghề	-9.81853
▁nghỉ	-9.81853
▁ngân	-9.81853
▁nóng	-9.81853
▁online	-9.81853
▁pay	-9.81853
▁peace	-9.81853
▁protein	-9.81853
▁radio	-9.81853
▁rút	-9.81853
▁software	-9.81853
▁store	-9.81853
▁studies	-9.81853
▁suất	-9.81853
▁taken	-9.81853
▁thưởng	-9.81853
▁tránh	-9.81853
▁type	-9.81853
▁white	-9.81853
▁yeah	-9.81853
▁Đầu	-9.81853
▁đo	-9.81853
▁đảm	-9.81853
▁đừng	-9.81853
▁Ồ	-9.81853
▁18	-9.86505
▁9	-9.86505
▁Chris	-9.86505
▁Every	-9.86505
▁First	-9.86505
▁Our	-9.86505
▁Thứ	-9.86505
▁Trên	-9.86505
▁average	-9.86505
▁bậc	-9.86505
▁cause	-9.86505
▁challenge	-9.86505
▁chance	-9.86505
▁chuột	-9.86505
▁chàng	-9.86505
▁chậm	-9.86505
▁citizens	-9.86505
▁crazy	-9.86505
▁die	-9.86505
▁eight	-9.86505
▁fast	-9.86505
▁father	-9.86505
▁freedom	-9.86505
▁full	-9.86505
▁ghế	-9.86505
▁góp	-9.86505
▁gương	-9.86505
▁hút	-9.86505
▁hư	-9.86505
▁hẳn	-9.86505
▁isn't	-9.86505
▁khổ	-9.86505
▁kid	-9.86505
▁literally	-9.86505
▁làng	-9.86505
▁met	-9.86505
▁mine	-9.86505
▁movement	-9.86505
▁mùa	-9.86505
▁nghìn	-9.86505
▁nhắc	-9.86505
▁nỗ	-9.86505
▁oh	-9.86505
▁physical	-9.86505
▁produce	-9.86505
▁products	-9.86505
▁short	-9.86505
▁solve	-9.86505
▁sóc	-9.86505
▁sót	-9.86505
▁sơ	-9.86505
▁teach	-9.86505
▁thuỷ	-9.86505
▁thước	-9.86505
▁tiềm	-9.86505
▁trust	-9.86505
▁trích	-9.86505
▁trùng	-9.86505
▁trận	-9.86505
▁tách	-9.86505
▁tật	-9.86505
▁unique	-9.86505
▁uống	-9.86505
▁website	-9.86505
▁đuổi	-9.86505
▁đẳng	-9.86505
▁đống	-9.86505
▁ủng	-9.86505
▁90	-9.91384
▁Can	-9.91384
▁Cám	-9.91384
▁Cậu	-9.91384
▁Dù	-9.91384
▁Of	-9.91384
▁On	-9.91384
▁Paul	-9.91384
▁Theo	-9.91384
▁becomes	-9.91384
▁bed	-9.91384
▁blood	-9.91384
▁books	-9.91384
▁box	-9.91384
▁buồn	-9.91384
▁bề	-9.91384
▁capacity	-9.91384
▁changes	-9.91384
▁chặn	-9.91384
▁concept	-9.91384
▁decisions	-9.91384
▁development	-9.91384
▁dặm	-9.91384
▁everywhere	-9.91384
▁fear	-9.91384
▁feet	-9.91384
▁hit	-9.91384
▁hoang	-9.91384
▁hold	-9.91384
▁khoá	-9.91384
▁lights	-9.91384
▁liệt	-9.91384
▁lạnh	-9.91384
▁media	-9.91384
▁modern	-9.91384
▁mãi	-9.91384
▁nhảy	-9.91384
▁normal	-9.91384
▁pattern	-9.91384
▁personal	-9.91384
▁photos	-9.91384
▁resources	-9.91384
▁running	-9.91384
▁schools	-9.91384
▁she's	-9.91384
▁son	-9.91384
▁sounds	-9.91384
▁special	-9.91384
▁suddenly	-9.91384
▁săn	-9.91384
▁sỹ	-9.91384
▁tai	-9.91384
▁they've	-9.91384
▁thảo	-9.91384
▁thắng	-9.91384
▁tool	-9.91384
▁turned	-9.91384
▁vốn	-9.91384
▁write	-9.91384
▁wrote	-9.91384
▁yourself	-9.91384
▁Đức	-9.91384
▁đáp	-9.91384
▁đương	-9.91384
▁ổn	-9.91384
▁Facebook	-9.96513
▁Hoa	-9.96513
▁Like	-9.96513
▁Liệu	-9.96513
▁Trái	-9.96513
▁World	-9.96513
▁act	-9.96513
▁amp	-9.96513
▁bigger	-9.96513
▁choose	-9.96513
▁chép	-9.96513
▁class	-9.96513
▁clearly	-9.96513
▁context	-9.96513
▁cost	-9.96513
▁democracy	-9.96513
▁died	-9.96513
▁doạ	-9.96513
▁drug	-9.96513
▁groups	-9.96513
▁growing	-9.96513
▁haven't	-9.96513
▁helped	-9.96513
▁hào	-9.96513
▁industry	-9.96513
▁innovation	-9.96513
▁known	-9.96513
▁lose	-9.96513
▁loved	-9.96513
▁lành	-9.96513
▁lắp	-9.96513
▁nhắn	-9.96513
▁nhẹ	-9.96513
▁nhựa	-9.96513
▁photo	-9.96513
▁phấn	-9.96513
▁phối	-9.96513
▁playing	-9.96513
▁potential	-9.96513
▁rate	-9.96513
▁reality	-9.96513
▁revolution	-9.96513
▁sell	-9.96513
▁sent	-9.96513
▁services	-9.96513
▁several	-9.96513
▁similar	-9.96513
▁size	-9.96513
▁skin	-9.96513
▁slide	-9.96513
▁sound	-9.96513
▁stand	-9.96513
▁strong	-9.96513
▁surface	-9.96513
▁sông	-9.96513
▁table	-9.96513
▁telling	-9.96513
▁thai	-9.96513
▁thạch	-9.96513
▁tiểu	-9.96513
▁túi	-9.96513
▁usually	-9.96513
▁value	-9.96513
▁viễn	-9.96513
▁vỏ	-9.96513
▁vợ	-9.96513
▁yên	-9.96513
▁Đông	-9.96513
▁đào	-9.96513
▁đỉnh	-9.96513
▁đỏ	-9.96513
▁đốc	-9.96513
▁,'	-10.0192
▁27	-10.0192
▁After	-10.0192
▁Conor	-10.0192
▁Cách	-10.0192
▁Giống	-10.0192
▁Iraq	-10.0192
▁Korea	-10.0192
▁Lúc	-10.0192
▁Tom	-10.0192
▁Vấn	-10.0192
▁We've	-10.0192
▁ability	-10.0192
▁based	-10.0192
▁basic	-10.0192
▁beauty	-10.0192
▁begin	-10.0192
▁bottom	-10.0192
▁bãi	-10.0192
▁bật	-10.0192
▁bữa	-10.0192
▁carbon	-10.0192
▁cars	-10.0192
▁certainly	-10.0192
▁chiếm	-10.0192
▁choice	-10.0192
▁chuỗi	-10.0192
▁chào	-10.0192
▁complex	-10.0192
▁cool	-10.0192
▁dead	-10.0192
▁dog	-10.0192
▁door	-10.0192
▁economic	-10.0192
▁explain	-10.0192
▁eye	-10.0192
▁fish	-10.0192
▁fly	-10.0192
▁follow	-10.0192
▁force	-10.0192
▁forward	-10.0192
▁gives	-10.0192
▁già	-10.0192
▁guess	-10.0192
▁gạch	-10.0192
▁happiness	-10.0192
▁hiển	-10.0192
▁hundred	-10.0192
▁hundreds	-10.0192
▁hè	-10.0192
▁issues	-10.0192
▁kept	-10.0192
▁key	-10.0192
▁khoảnh	-10.0192
▁khổng	-10.0192
▁kim	-10.0192
▁lab	-10.0192
▁likely	-10.0192
▁lions	-10.0192
▁lược	-10.0192
▁lặng	-10.0192
▁lọc	-10.0192
▁lộ	-10.0192
▁mập	-10.0192
▁network	-10.0192
▁ngẫu	-10.0192
▁nhé	-10.0192
▁núi	-10.0192
▁nấu	-10.0192
▁ong	-10.0192
▁police	-10.0192
▁program	-10.0192
▁quyển	-10.0192
▁ready	-10.0192
▁rượu	-10.0192
▁rồ	-10.0192
▁safe	-10.0192
▁scientific	-10.0192
▁send	-10.0192
▁simply	-10.0192
▁sleep	-10.0192
▁starting	-10.0192
▁sáu	-10.0192
▁súng	-10.0192
▁terms	-10.0192
▁thang	-10.0192
▁third	-10.0192
▁thoả	-10.0192
▁thải	-10.0192
▁thịt	-10.0192
▁tiny	-10.0192
▁tiêm	-10.0192
▁train	-10.0192
▁trống	-10.0192
▁types	-10.0192
▁tô	-10.0192
▁tạm	-10.0192
▁voice	-10.0192
▁won't	-10.0192
▁ám	-10.0192
▁đập	-10.0192
▁13	-10.0764
▁22	-10.0764
▁City	-10.0764
▁East	-10.0764
▁Even	-10.0764
▁HIV	-10.0764
▁He's	-10.0764
▁Hầu	-10.0764
▁MRI	-10.0764
▁Mẹ	-10.0764
▁National	-10.0764
▁Not	-10.0764
▁anymore	-10.0764
▁becoming	-10.0764
▁behavior	-10.0764
▁born	-10.0764
▁center	-10.0764
▁clean	-10.0764
▁computers	-10.0764
▁connected	-10.0764
▁cát	-10.0764
▁căng	-10.0764
▁cản	-10.0764
▁evidence	-10.0764
▁experiment	-10.0764
▁extraordinary	-10.0764
▁fall	-10.0764
▁families	-10.0764
▁faster	-10.0764
▁field	-10.0764
▁fight	-10.0764
▁ghét	-10.0764
▁gió	-10.0764
▁giường	-10.0764
▁giọng	-10.0764
▁hoảng	-10.0764
▁huống	-10.0764
▁iPhone	-10.0764
▁interested	-10.0764
▁journey	-10.0764
▁khẩu	-10.0764
▁knows	-10.0764
▁leaders	-10.0764
▁list	-10.0764
▁lương	-10.0764
▁lặp	-10.0764
▁lồ	-10.0764
▁market	-10.0764
▁medical	-10.0764
▁meet	-10.0764
▁moved	-10.0764
▁mỏ	-10.0764
▁nhuận	-10.0764
▁nhật	-10.0764
▁object	-10.0764
▁older	-10.0764
▁passion	-10.0764
▁patterns	-10.0764
▁period	-10.0764
▁phiếu	-10.0764
▁planning	-10.0764
▁politics	-10.0764
▁progress	-10.0764
▁projects	-10.0764
▁quán	-10.0764
▁quên	-10.0764
▁realize	-10.0764
▁response	-10.0764
▁risk	-10.0764
▁rác	-10.0764
▁rẻ	-10.0764
▁shares	-10.0764
▁showing	-10.0764
▁situation	-10.0764
▁spent	-10.0764
▁starts	-10.0764
▁stopped	-10.0764
▁support	-10.0764
▁sustainable	-10.0764
▁sốt	-10.0764
▁tells	-10.0764
▁thao	-10.0764
▁thiệp	-10.0764
▁thoải	-10.0764
▁thác	-10.0764
▁thảm	-10.0764
▁thờ	-10.0764
▁thừa	-10.0764
▁truy	-10.0764
▁trì	-10.0764
▁virus	-10.0764
▁vết	-10.0764
▁vỡ	-10.0764
▁wall	-10.0764
▁Đại	-10.0764
▁Đừng	-10.0764
▁đe	-10.0764
▁17	-10.137
▁2007	-10.137
▁2009	-10.137
▁From	-10.137
▁Israel	-10.137
▁Let	-10.137
▁Look	-10.137
▁Many	-10.137
▁Maybe	-10.137
▁Middle	-10.137
▁Most	-10.137
▁Richard	-10.137
▁Times	-10.137
▁You've	-10.137
▁among	-10.137
▁amount	-10.137
▁asking	-10.137
▁beings	-10.137
▁bi	-10.137
▁brains	-10.137
▁bè	-10.137
▁bắn	-10.137
▁compassion	-10.137
▁content	-10.137
▁conversation	-10.137
▁creative	-10.137
▁cám	-10.137
▁cứng	-10.137
▁deep	-10.137
▁diseases	-10.137
▁essentially	-10.137
▁exist	-10.137
▁experienced	-10.137
▁extremely	-10.137
▁fine	-10.137
▁focus	-10.137
▁forms	-10.137
▁fun	-10.137
▁further	-10.137
▁giận	-10.137
▁helping	-10.137
▁hạng	-10.137
▁hẹn	-10.137
▁họp	-10.137
▁imagination	-10.137
▁instance	-10.137
▁issue	-10.137
▁khuyến	-10.137
▁khấu	-10.137
▁kill	-10.137
▁kí	-10.137
▁lan	-10.137
▁lễ	-10.137
▁lỗ	-10.137
▁major	-10.137
▁mát	-10.137
▁móc	-10.137
▁ngại	-10.137
▁nâng	-10.137
▁nổ	-10.137
▁ocean	-10.137
▁paid	-10.137
▁people's	-10.137
▁phẫu	-10.137
▁pictures	-10.137
▁points	-10.137
▁provide	-10.137
▁published	-10.137
▁quality	-10.137
▁recognize	-10.137
▁rights	-10.137
▁seem	-10.137
▁shown	-10.137
▁sit	-10.137
▁specific	-10.137
▁stress	-10.137
▁success	-10.137
▁summer	-10.137
▁tan	-10.137
▁theory	-10.137
▁they'll	-10.137
▁thù	-10.137
▁thợ	-10.137
▁travel	-10.137
▁trôi	-10.137
▁tị	-10.137
▁wait	-10.137
▁watching	-10.137
▁wear	-10.137
▁worldwide	-10.137
▁đòi	-10.137
▁đốt	-10.137
▁đựng	-10.137
▁11	-10.2015
▁50,000	-10.2015
▁AIDS	-10.2015
▁Americans	-10.2015
▁Bản	-10.2015
▁Charles	-10.2015
▁Cuộc	-10.2015
▁Cũng	-10.2015
▁Hai	-10.2015
▁Heh	-10.2015
▁His	-10.2015
▁Hiện	-10.2015
▁Kenya	-10.2015
▁Korean	-10.2015
▁Lan	-10.2015
▁Mexico	-10.2015
▁Pháp	-10.2015
▁She's	-10.2015
▁Thay	-10.2015
▁Thời	-10.2015
▁U.S.	-10.2015
▁Where	-10.2015
▁allowed	-10.2015
▁artist	-10.2015
▁bọn	-10.2015
▁career	-10.2015
▁changing	-10.2015
▁cháy	-10.2015
▁chặt	-10.2015
▁cities	-10.2015
▁communication	-10.2015
▁cooking	-10.2015
▁cường	-10.2015
▁cỗ	-10.2015
▁cục	-10.2015
▁develop	-10.2015
▁digital	-10.2015
▁dõi	-10.2015
▁email	-10.2015
▁empathy	-10.2015
▁engineering	-10.2015
▁engineers	-10.2015
▁evolved	-10.2015
▁exciting	-10.2015
▁familiar	-10.2015
▁final	-10.2015
▁followed	-10.2015
▁games	-10.2015
▁gen	-10.2015
▁giving	-10.2015
▁goal	-10.2015
▁grew	-10.2015
▁homes	-10.2015
▁hoàng	-10.2015
▁humanity	-10.2015
▁hà	-10.2015
▁hầm	-10.2015
▁hỗ	-10.2015
▁im	-10.2015
▁including	-10.2015
▁individuals	-10.2015
▁invented	-10.2015
▁khiếp	-10.2015
▁khát	-10.2015
▁khứ	-10.2015
▁kêu	-10.2015
▁levels	-10.2015
▁lucky	-10.2015
▁lính	-10.2015
▁lừa	-10.2015
▁mobile	-10.2015
▁national	-10.2015
▁nhu	-10.2015
▁nhịp	-10.2015
▁objects	-10.2015
▁pain	-10.2015
▁particularly	-10.2015
▁path	-10.2015
▁perspective	-10.2015
▁product	-10.2015
▁quái	-10.2015
▁reasons	-10.2015
▁red	-10.2015
▁relationship	-10.2015
▁result	-10.2015
▁sorry	-10.2015
▁sorts	-10.2015
▁stay	-10.2015
▁sổ	-10.2015
▁sợi	-10.2015
▁teachers	-10.2015
▁thuyền	-10.2015
▁thăm	-10.2015
▁thầy	-10.2015
▁town	-10.2015
▁training	-10.2015
▁transition	-10.2015
▁tròn	-10.2015
▁trầm	-10.2015
▁trộn	-10.2015
▁tuyên	-10.2015
▁values	-10.2015
▁vân	-10.2015
▁wants	-10.2015
▁xoá	-10.2015
▁you'd	-10.2015
▁Á	-10.2015
▁ác	-10.2015
▁Đối	-10.2015
▁đam	-10.2015
▁đãi	-10.2015
▁10,000	-10.2705
▁150	-10.2705
▁2005	-10.2705
▁250	-10.2705
▁500	-10.2705
▁52	-10.2705
▁Another	-10.2705
▁Brian	-10.2705
▁Einstein	-10.2705
▁GDP	-10.2705
▁Kỳ	-10.2705
▁Nào	-10.2705
▁Năm	-10.2705
▁PM	-10.2705
▁San	-10.2705
▁Thuỵ	-10.2705
▁Thái	-10.2705
▁Về	-10.2705
▁Your	-10.2705
▁activity	-10.2705
▁anywhere	-10.2705
▁block	-10.2705
▁bảy	-10.2705
▁caught	-10.2705
▁causes	-10.2705
▁chán	-10.2705
▁chồng	-10.2705
▁climate	-10.2705
▁complete	-10.2705
▁cong	-10.2705
▁connection	-10.2705
▁continue	-10.2705
▁creativity	-10.2705
▁cốt	-10.2705
▁cờ	-10.2705
▁differences	-10.2705
▁discovered	-10.2705
▁drive	-10.2705
▁drugs	-10.2705
▁dĩ	-10.2705
▁effective	-10.2705
▁examples	-10.2705
▁except	-10.2705
▁fantastic	-10.2705
▁general	-10.2705
▁genetic	-10.2705
▁giành	-10.2705
▁gõ	-10.2705
▁gỗ	-10.2705
▁hang	-10.2705
▁hiếm	-10.2705
▁hospital	-10.2705
▁huyết	-10.2705
▁hỏng	-10.2705
▁interest	-10.2705
▁ko	-10.2705
▁law	-10.2705
▁leo	-10.2705
▁lines	-10.2705
▁lived	-10.2705
▁lãng	-10.2705
▁lũ	-10.2705
▁map	-10.2705
▁mass	-10.2705
▁memory	-10.2705
▁models	-10.2705
▁mù	-10.2705
▁mực	-10.2705
▁ngang	-10.2705
▁nhằm	-10.2705
▁nobody	-10.2705
▁notice	-10.2705
▁noticed	-10.2705
▁nắng	-10.2705
▁obviously	-10.2705
▁pieces	-10.2705
▁pin	-10.2705
▁plan	-10.2705
▁plant	-10.2705
▁protect	-10.2705
▁recently	-10.2705
▁region	-10.2705
▁rủi	-10.2705
▁secret	-10.2705
▁series	-10.2705
▁sexual	-10.2705
▁solutions	-10.2705
▁source	-10.2705
▁spread	-10.2705
▁standing	-10.2705
▁structure	-10.2705
▁successful	-10.2705
▁surprised	-10.2705
▁survive	-10.2705
▁sụp	-10.2705
▁sứ	-10.2705
▁tiếc	-10.2705
▁triết	-10.2705
▁tán	-10.2705
▁tóc	-10.2705
▁upon	-10.2705
▁versus	-10.2705
▁vultures	-10.2705
▁watch	-10.2705
▁wife	-10.2705
▁world's	-10.2705
▁xinh	-10.2705
▁à	-10.2705
▁Đôi	-10.2705
▁Đất	-10.2705
▁3D	-10.3446
▁Asia	-10.3446
▁Brazil	-10.3446
▁California	-10.3446
▁Chẳng	-10.3446
▁Dĩ	-10.3446
▁Hàng	-10.3446
▁Michael	-10.3446
▁Nhật	-10.3446
▁Nói	-10.3446
▁Oxford	-10.3446
▁Pakistan	-10.3446
▁Sao	-10.3446
▁Those	-10.3446
▁West	-10.3446
▁Western	-10.3446
▁afraid	-10.3446
▁anybody	-10.3446
▁anyway	-10.3446
▁artists	-10.3446
▁available	-10.3446
▁buildings	-10.3446
▁bạc	-10.3446
▁cases	-10.3446
▁chìm	-10.3446
▁colleagues	-10.3446
▁college	-10.3446
▁communicate	-10.3446
▁cultural	-10.3446
▁cỡ	-10.3446
▁cụm	-10.3446
▁decide	-10.3446
▁due	-10.3446
▁dính	-10.3446
▁earlier	-10.3446
▁economy	-10.3446
▁effect	-10.3446
▁expensive	-10.3446
▁famous	-10.3446
▁finding	-10.3446
▁fire	-10.3446
▁genes	-10.3446
▁ghép	-10.3446
▁gà	-10.3446
▁healthy	-10.3446
▁hiến	-10.3446
▁hot	-10.3446
▁hour	-10.3446
▁hứa	-10.3446
▁illness	-10.3446
▁impact	-10.3446
▁impossible	-10.3446
▁income	-10.3446
▁involved	-10.3446
▁lang	-10.3446
▁late	-10.3446
▁liền	-10.3446
▁lò	-10.3446
▁lướt	-10.3446
▁miếng	-10.3446
▁month	-10.3446
▁mạc	-10.3446
▁neighborhood	-10.3446
▁nine	-10.3446
▁offer	-10.3446
▁organization	-10.3446
▁phó	-10.3446
▁positive	-10.3446
▁produced	-10.3446
▁quote	-10.3446
▁quê	-10.3446
▁quỹ	-10.3446
▁religion	-10.3446
▁ro	-10.3446
▁scared	-10.3446
▁serious	-10.3446
▁shared	-10.3446
▁sister	-10.3446
▁slow	-10.3446
▁smart	-10.3446
▁stands	-10.3446
▁supposed	-10.3446
▁sàn	-10.3446
▁súc	-10.3446
▁technologies	-10.3446
▁thấu	-10.3446
▁totally	-10.3446
▁tri	-10.3446
▁trào	-10.3446
▁tuỳ	-10.3446
▁tảng	-10.3446
▁tỏ	-10.3446
▁victim	-10.3446
▁vote	-10.3446
▁who's	-10.3446
▁wish	-10.3446
▁xoay	-10.3446
▁xu	-10.3446
▁xứng	-10.3446
▁yes	-10.3446
▁Úc	-10.3446
▁đùa	-10.3446
▁ư	-10.3446
▁19	-10.4247
▁1900	-10.4247
▁35	-10.4247
▁75	-10.4247
▁Ba	-10.4247
▁Before	-10.4247
▁Bill	-10.4247
▁Bryan	-10.4247
▁By	-10.4247
▁Bài	-10.4247
▁C	-10.4247
▁Cùng	-10.4247
▁Eric	-10.4247
▁Ford	-10.4247
▁Harvard	-10.4247
▁Hơn	-10.4247
▁Indian	-10.4247
▁Là	-10.4247
▁Ngay	-10.4247
▁Nhiều	-10.4247
▁Obama	-10.4247
▁Phải	-10.4247
▁Sam	-10.4247
▁Street	-10.4247
▁Taliban	-10.4247
▁Thậm	-10.4247
▁Tự	-10.4247
▁Viện	-10.4247
▁YouTube	-10.4247
▁abuse	-10.4247
▁anyone	-10.4247
▁aren't	-10.4247
▁autism	-10.4247
▁bacteria	-10.4247
▁belief	-10.4247
▁below	-10.4247
▁binh	-10.4247
▁birds	-10.4247
▁bong	-10.4247
▁border	-10.4247
▁broke	-10.4247
▁businesses	-10.4247
▁bướm	-10.4247
▁calling	-10.4247
▁cam	-10.4247
▁che	-10.4247
▁cheap	-10.4247
▁check	-10.4247
▁chối	-10.4247
▁closer	-10.4247
▁consider	-10.4247
▁creatures	-10.4247
▁dad	-10.4247
▁damage	-10.4247
▁dark	-10.4247
▁daughter	-10.4247
▁devices	-10.4247
▁dream	-10.4247
▁easily	-10.4247
▁entrepreneurs	-10.4247
▁environmental	-10.4247
▁female	-10.4247
▁fix	-10.4247
▁following	-10.4247
▁funny	-10.4247
▁gay	-10.4247
▁giam	-10.4247
▁giấc	-10.4247
▁giấu	-10.4247
▁grade	-10.4247
▁grandmother	-10.4247
▁greater	-10.4247
▁guga	-10.4247
▁held	-10.4247
▁honest	-10.4247
▁hoại	-10.4247
▁huấn	-10.4247
▁hô	-10.4247
▁hương	-10.4247
▁hối	-10.4247
▁identity	-10.4247
▁immediately	-10.4247
▁infrastructure	-10.4247
▁invention	-10.4247
▁kín	-10.4247
▁leader	-10.4247
▁leads	-10.4247
▁lunch	-10.4247
▁làn	-10.4247
▁lõi	-10.4247
▁lộn	-10.4247
▁main	-10.4247
▁medicine	-10.4247
▁minds	-10.4247
▁miền	-10.4247
▁molecules	-10.4247
▁mãn	-10.4247
▁mèo	-10.4247
▁mét	-10.4247
▁mờ	-10.4247
▁ngoái	-10.4247
▁nhạy	-10.4247
▁nhẫn	-10.4247
▁nút	-10.4247
▁onto	-10.4247
▁opened	-10.4247
▁organizations	-10.4247
▁phiên	-10.4247
▁played	-10.4247
▁please	-10.4247
▁position	-10.4247
▁profound	-10.4247
▁programs	-10.4247
▁ran	-10.4247
▁reach	-10.4247
▁reading	-10.4247
▁represent	-10.4247
▁results	-10.4247
▁role	-10.4247
▁rules	-10.4247
▁rào	-10.4247
▁răng	-10.4247
▁rắc	-10.4247
▁rỗng	-10.4247
▁sa	-10.4247
▁samples	-10.4247
▁self	-10.4247
▁service	-10.4247
▁sex	-10.4247
▁shot	-10.4247
▁skills	-10.4247
▁stuck	-10.4247
▁sun	-10.4247
▁talked	-10.4247
▁tend	-10.4247
▁thuận	-10.4247
▁thói	-10.4247
▁thả	-10.4247
▁thẩm	-10.4247
▁thở	-10.4247
▁total	-10.4247
▁treatment	-10.4247
▁truly	-10.4247
▁truth	-10.4247
▁trại	-10.4247
▁trấn	-10.4247
▁trứng	-10.4247
▁tung	-10.4247
▁túc	-10.4247
▁tụ	-10.4247
▁various	-10.4247
▁vision	-10.4247
▁vú	-10.4247
▁xưa	-10.4247
▁zero	-10.4247
▁đoàn	-10.4247
▁đón	-10.4247
▁ưu	-10.4247
▁–	-10.4247
▁..	-10.5117
▁21	-10.5117
▁400	-10.5117
▁Alzheimer's	-10.5117
▁Australia	-10.5117
▁Ban	-10.5117
▁Blue	-10.5117
▁Bộ	-10.5117
▁Central	-10.5117
▁Chắc	-10.5117
▁Come	-10.5117
▁Dr.	-10.5117
▁Each	-10.5117
▁Hey	-10.5117
▁However	-10.5117
▁Hà	-10.5117
▁Hàn	-10.5117
▁Hôm	-10.5117
▁Imagine	-10.5117
▁Instead	-10.5117
▁Is	-10.5117
▁Kinh	-10.5117
▁Latin	-10.5117
▁Libya	-10.5117
▁May	-10.5117
▁Mà	-10.5117
▁Nhân	-10.5117
▁Nhìn	-10.5117
▁Này	-10.5117
▁Sometimes	-10.5117
▁State	-10.5117
▁Take	-10.5117
▁Tiếng	-10.5117
▁Việc	-10.5117
▁above	-10.5117
▁action	-10.5117
▁active	-10.5117
▁affected	-10.5117
▁allows	-10.5117
▁apart	-10.5117
▁approach	-10.5117
▁bees	-10.5117
▁benefit	-10.5117
▁biggest	-10.5117
▁blog	-10.5117
▁board	-10.5117
▁bodies	-10.5117
▁break	-10.5117
▁buôn	-10.5117
▁bối	-10.5117
▁capital	-10.5117
▁catch	-10.5117
▁central	-10.5117
▁coffee	-10.5117
▁collective	-10.5117
▁core	-10.5117
▁cover	-10.5117
▁cut	-10.5117
▁cãi	-10.5117
▁cỏ	-10.5117
▁decision	-10.5117
▁designed	-10.5117
▁despite	-10.5117
▁dimensions	-10.5117
▁diệt	-10.5117
▁drop	-10.5117
▁dàn	-10.5117
▁dám	-10.5117
▁dáng	-10.5117
▁dãy	-10.5117
▁dư	-10.5117
▁electricity	-10.5117
▁emotional	-10.5117
▁ended	-10.5117
▁enjoy	-10.5117
▁fascinating	-10.5117
▁flying	-10.5117
▁forced	-10.5117
▁giơ	-10.5117
▁giọt	-10.5117
▁grandfather	-10.5117
▁gt	-10.5117
▁gói	-10.5117
▁hell	-10.5117
▁highly	-10.5117
▁hước	-10.5117
▁hồn	-10.5117
▁ice	-10.5117
▁improve	-10.5117
▁increase	-10.5117
▁join	-10.5117
▁khung	-10.5117
▁khúc	-10.5117
▁kiên	-10.5117
▁larger	-10.5117
▁lead	-10.5117
▁linh	-10.5117
▁loss	-10.5117
▁lt	-10.5117
▁lệnh	-10.5117
▁machines	-10.5117
▁magazine	-10.5117
▁magic	-10.5117
▁managed	-10.5117
▁meaning	-10.5117
▁meant	-10.5117
▁measure	-10.5117
▁mental	-10.5117
▁message	-10.5117
▁mostly	-10.5117
▁movie	-10.5117
▁mùi	-10.5117
▁mại	-10.5117
▁mạo	-10.5117
▁mẻ	-10.5117
▁mừng	-10.5117
▁ngài	-10.5117
▁ngũ	-10.5117
▁ngốc	-10.5117
▁noise	-10.5117
▁ném	-10.5117
▁nét	-10.5117
▁nướng	-10.5117
▁nấm	-10.5117
▁page	-10.5117
▁patient	-10.5117
▁photograph	-10.5117
▁plastic	-10.5117
▁poetry	-10.5117
▁policy	-10.5117
▁practice	-10.5117
▁present	-10.5117
▁private	-10.5117
▁proud	-10.5117
▁quà	-10.5117
▁quí	-10.5117
▁race	-10.5117
▁range	-10.5117
▁rich	-10.5117
▁river	-10.5117
▁robots	-10.5117
▁sand	-10.5117
▁sat	-10.5117
▁scientist	-10.5117
▁sea	-10.5117
▁seconds	-10.5117
▁seemed	-10.5117
▁sharks	-10.5117
▁shouldn't	-10.5117
▁showed	-10.5117
▁slavery	-10.5117
▁somehow	-10.5117
▁somewhere	-10.5117
▁spirit	-10.5117
▁square	-10.5117
▁stars	-10.5117
▁states	-10.5117
▁stem	-10.5117
▁stood	-10.5117
▁strange	-10.5117
▁street	-10.5117
▁suffering	-10.5117
▁teacher	-10.5117
▁thùng	-10.5117
▁thẻ	-10.5117
▁thọ	-10.5117
▁transform	-10.5117
▁trắc	-10.5117
▁trốn	-10.5117
▁tuy	-10.5117
▁tuyết	-10.5117
▁twice	-10.5117
▁tí	-10.5117
▁tần	-10.5117
▁uncomfortable	-10.5117
▁va	-10.5117
▁vast	-10.5117
▁vocal	-10.5117
▁vong	-10.5117
▁walked	-10.5117
▁walls	-10.5117
▁willing	-10.5117
▁wind	-10.5117
▁Điển	-10.5117
▁Đã	-10.5117
▁điệp	-10.5117
▁đua	-10.5117
▁đạp	-10.5117
▁ơi	-10.5117
▁20th	-10.607
▁45	-10.607
▁ADN	-10.607
▁African	-10.607
▁Boston	-10.607
▁Boy	-10.607
▁Bất	-10.607
▁Bằng	-10.607
▁Cha	-10.607
▁Chủ	-10.607
▁Dan	-10.607
▁Darwin	-10.607
▁David	-10.607
▁Don't	-10.607
▁Foundation	-10.607
▁Ghana	-10.607
▁Good	-10.607
▁Great	-10.607
▁Have	-10.607
▁Hoặc	-10.607
▁Học	-10.607
▁Japan	-10.607
▁Lần	-10.607
▁Nigeria	-10.607
▁Online	-10.607
▁Over	-10.607
▁Percy	-10.607
▁Phần	-10.607
▁Quá	-10.607
▁R-I-A-A	-10.607
▁Rio	-10.607
▁Since	-10.607
▁Starbucks	-10.607
▁Tamiflu	-10.607
▁Today	-10.607
▁Toronto	-10.607
▁Toàn	-10.607
▁Trời	-10.607
▁Tổ	-10.607
▁While	-10.607
▁Wow	-10.607
▁achieve	-10.607
▁actual	-10.607
▁agriculture	-10.607
▁alive	-10.607
▁although	-10.607
▁amounts	-10.607
▁associated	-10.607
▁assume	-10.607
▁aware	-10.607
▁babies	-10.607
▁baby	-10.607
▁benefits	-10.607
▁bought	-10.607
▁bringing	-10.607
▁bus	-10.607
▁bông	-10.607
▁bút	-10.607
▁bơi	-10.607
▁bấy	-10.607
▁bổ	-10.607
▁bụng	-10.607
▁carry	-10.607
▁charge	-10.607
▁chemical	-10.607
▁clothes	-10.607
▁conflict	-10.607
▁corruption	-10.607
▁cure	-10.607
▁cycle	-10.607
▁cặp	-10.607
▁decades	-10.607
▁degrees	-10.607
▁deliver	-10.607
▁dinh	-10.607
▁dramatic	-10.607
▁drawing	-10.607
▁dress	-10.607
▁dying	-10.607
▁dọn	-10.607
▁engage	-10.607
▁engine	-10.607
▁entirely	-10.607
▁eventually	-10.607
▁faces	-10.607
▁failed	-10.607
▁favorite	-10.607
▁financial	-10.607
▁forest	-10.607
▁forth	-10.607
▁fuel	-10.607
▁gaga	-10.607
▁garden	-10.607
▁giặt	-10.607
▁hate	-10.607
▁heads	-10.607
▁higher	-10.607
▁hole	-10.607
▁houses	-10.607
▁huy	-10.607
▁iPad	-10.607
▁increasingly	-10.607
▁insight	-10.607
▁inspiring	-10.607
▁intelligence	-10.607
▁interview	-10.607
▁introduced	-10.607
▁invited	-10.607
▁jobs	-10.607
▁khảo	-10.607
▁kèm	-10.607
▁kênh	-10.607
▁lack	-10.607
▁lady	-10.607
▁leading	-10.607
▁letter	-10.607
▁low	-10.607
▁ly	-10.607
▁lôi	-10.607
▁ma	-10.607
▁male	-10.607
▁mathematics	-10.607
▁meaningful	-10.607
▁meeting	-10.607
▁mothers	-10.607
▁mộ	-10.607
▁mỹ	-10.607
▁named	-10.607
▁near	-10.607
▁neurons	-10.607
▁ngầm	-10.607
▁ngọn	-10.607
▁ngựa	-10.607
▁nhiếp	-10.607
▁none	-10.607
▁nàng	-10.607
▁nợ	-10.607
▁obvious	-10.607
▁office	-10.607
▁operating	-10.607
▁origami	-10.607
▁otherwise	-10.607
▁passionate	-10.607
▁perfectly	-10.607
▁phiền	-10.607
▁phán	-10.607
▁planets	-10.607
▁possibly	-10.607
▁price	-10.607
▁prison	-10.607
▁promise	-10.607
▁prove	-10.607
▁pull	-10.607
▁pulled	-10.607
▁quang	-10.607
▁rain	-10.607
▁random	-10.607
▁reduce	-10.607
▁respond	-10.607
▁roughly	-10.607
▁screen	-10.607
▁security	-10.607
▁signed	-10.607
▁site	-10.607
▁societies	-10.607
▁sold	-10.607
▁subject	-10.607
▁switch	-10.607
▁sánh	-10.607
▁sáo	-10.607
▁sữa	-10.607
▁task	-10.607
▁taught	-10.607
▁teaching	-10.607
▁terrible	-10.607
▁the'	-10.607
▁thiểu	-10.607
▁thâm	-10.607
▁thận	-10.607
▁tons	-10.607
▁track	-10.607
▁tree	-10.607
▁trân	-10.607
▁tá	-10.607
▁tỉnh	-10.607
▁u	-10.607
▁university	-10.607
▁useful	-10.607
▁village	-10.607
▁vua	-10.607
▁vuông	-10.607
▁vỗ	-10.607
▁walks	-10.607
▁whom	-10.607
▁win	-10.607
▁won	-10.607
▁wondered	-10.607
▁workers	-10.607
▁worse	-10.607
▁worth	-10.607
▁xong	-10.607
▁À	-10.607
▁ép	-10.607
▁đeo	-10.607
▁đĩa	-10.607
▁đắt	-10.607
▁đỗ	-10.607
▁đớn	-10.607
▁ạ	-10.607
▁1,000	-10.7123
▁Alzheimer	-10.7123
▁Are	-10.7123
▁Ben	-10.7123
▁Big	-10.7123
▁Cực	-10.7123
▁Dutch	-10.7123
▁Dương	-10.7123
▁Eve	-10.7123
▁Everything	-10.7123
▁French	-10.7123
▁Giải	-10.7123
▁Go	-10.7123
▁Gần	-10.7123
▁Higgs	-10.7123
▁Hy	-10.7123
▁Hệ	-10.7123
▁Jesus	-10.7123
▁Lego	-10.7123
▁Mr.	-10.7123
▁Máy	-10.7123
▁Mặc	-10.7123
▁Nha	-10.7123
▁Orleans	-10.7123
▁Peace	-10.7123
▁School	-10.7123
▁Simon	-10.7123
▁Steve	-10.7123
▁Sẽ	-10.7123
▁Talk	-10.7123
▁Think	-10.7123
▁Thiên	-10.7123
▁Tốt	-10.7123
▁Very	-10.7123
▁Vài	-10.7123
▁Wall	-10.7123
▁Web	-10.7123
▁With	-10.7123
▁Zambia	-10.7123
▁add	-10.7123
▁ahead	-10.7123
▁aid	-10.7123
▁apartment	-10.7123
▁app	-10.7123
▁artificial	-10.7123
▁arts	-10.7123
▁awful	-10.7123
▁balance	-10.7123
▁birthday	-10.7123
▁biện	-10.7123
▁blind	-10.7123
▁boys	-10.7123
▁bunch	-10.7123
▁bám	-10.7123
▁bùng	-10.7123
▁bạch	-10.7123
▁bắc	-10.7123
▁bốt	-10.7123
▁bớt	-10.7123
▁carrying	-10.7123
▁chemistry	-10.7123
▁chốt	-10.7123
▁circumstances	-10.7123
▁click	-10.7123
▁closed	-10.7123
▁cold	-10.7123
▁compared	-10.7123
▁complicated	-10.7123
▁consequences	-10.7123
▁creation	-10.7123
▁crisis	-10.7123
▁cuồng	-10.7123
▁côn	-10.7123
▁cúm	-10.7123
▁cưới	-10.7123
▁debt	-10.7123
▁deeply	-10.7123
▁depressed	-10.7123
▁designer	-10.7123
▁detail	-10.7123
▁differently	-10.7123
▁direction	-10.7123
▁director	-10.7123
▁discovery	-10.7123
▁dish	-10.7123
▁doctor	-10.7123
▁dots	-10.7123
▁dry	-10.7123
▁dày	-10.7123
▁dán	-10.7123
▁dạo	-10.7123
▁dọc	-10.7123
▁dứt	-10.7123
▁easier	-10.7123
▁efficient	-10.7123
▁effort	-10.7123
▁emotions	-10.7123
▁empty	-10.7123
▁errors	-10.7123
▁essential	-10.7123
▁evolution	-10.7123
▁exists	-10.7123
▁expect	-10.7123
▁expected	-10.7123
▁explore	-10.7123
▁extreme	-10.7123
▁faith	-10.7123
▁finished	-10.7123
▁fit	-10.7123
▁fruit	-10.7123
▁gift	-10.7123
▁gián	-10.7123
▁giảng	-10.7123
▁gọn	-10.7123
▁gỡ	-10.7123
▁hair	-10.7123
▁hearing	-10.7123
▁helps	-10.7123
▁hãng	-10.7123
▁illegal	-10.7123
▁importantly	-10.7123
▁incredibly	-10.7123
▁industrial	-10.7123
▁inspired	-10.7123
▁interact	-10.7123
▁introduce	-10.7123
▁investment	-10.7123
▁invisible	-10.7123
▁jazz	-10.7123
▁justice	-10.7123
▁khuynh	-10.7123
▁khôi	-10.7123
▁king	-10.7123
▁lay	-10.7123
▁legacy	-10.7123
▁legal	-10.7123
▁letters	-10.7123
▁listen	-10.7123
▁lower	-10.7123
▁lân	-10.7123
▁lão	-10.7123
▁lưng	-10.7123
▁lẻ	-10.7123
▁lục	-10.7123
▁maintain	-10.7123
▁manufacturing	-10.7123
▁markets	-10.7123
▁math	-10.7123
▁matters	-10.7123
▁military	-10.7123
▁mistakes	-10.7123
▁moments	-10.7123
▁muộn	-10.7123
▁mây	-10.7123
▁mũ	-10.7123
▁mũi	-10.7123
▁mồi	-10.7123
▁necessary	-10.7123
▁negative	-10.7123
▁newspaper	-10.7123
▁nghiện	-10.7123
▁ngập	-10.7123
▁nhũng	-10.7123
▁nhỉ	-10.7123
▁ninh	-10.7123
▁note	-10.7123
▁nát	-10.7123
▁nở	-10.7123
▁one's	-10.7123
▁opportunities	-10.7123
▁organisms	-10.7123
▁original	-10.7123
▁paint	-10.7123
▁park	-10.7123
▁pha	-10.7123
▁phones	-10.7123
▁physically	-10.7123
▁phái	-10.7123
▁pick	-10.7123
▁plans	-10.7123
▁pleasure	-10.7123
▁politicians	-10.7123
▁pop	-10.7123
▁press	-10.7123
▁production	-10.7123
▁property	-10.7123
▁quick	-10.7123
▁reached	-10.7123
▁reaction	-10.7123
▁received	-10.7123
▁recent	-10.7123
▁remarkable	-10.7123
▁remote	-10.7123
▁risks	-10.7123
▁rét	-10.7123
▁rẽ	-10.7123
▁seriously	-10.7123
▁shame	-10.7123
▁shape	-10.7123
▁shapes	-10.7123
▁shift	-10.7123
▁silence	-10.7123
▁singing	-10.7123
▁smaller	-10.7123
▁smile	-10.7123
▁soil	-10.7123
▁south	-10.7123
▁straight	-10.7123
▁streets	-10.7123
▁structures	-10.7123
▁studied	-10.7123
▁studio	-10.7123
▁su	-10.7123
▁sudden	-10.7123
▁sơn	-10.7123
▁sắm	-10.7123
▁sốc	-10.7123
▁temperature	-10.7123
▁therefore	-10.7123
▁thousand	-10.7123
▁thuần	-10.7123
▁tháo	-10.7123
▁thỏ	-10.7123
▁tia	-10.7123
▁touch	-10.7123
▁towards	-10.7123
▁traffic	-10.7123
▁trees	-10.7123
▁trick	-10.7123
▁trip	-10.7123
▁tràn	-10.7123
▁tuệ	-10.7123
▁typical	-10.7123
▁typically	-10.7123
▁tàng	-10.7123
▁tóm	-10.7123
▁tông	-10.7123
▁tươi	-10.7123
▁tướng	-10.7123
▁ultimately	-10.7123
▁unexpected	-10.7123
▁unless	-10.7123
▁urban	-10.7123
▁users	-10.7123
▁visual	-10.7123
▁volunteers	-10.7123
▁vé	-10.7123
▁vải	-10.7123
▁wave	-10.7123
▁we'd	-10.7123
▁wealth	-10.7123
▁weapons	-10.7123
▁weight	-10.7123
▁whales	-10.7123
▁xạ	-10.7123
▁yellow	-10.7123
▁đoan	-10.7123
▁đài	-10.7123
▁đẻ	-10.7123
▁2050	-10.8301
▁4,000	-10.8301
▁48	-10.8301
▁56	-10.8301
▁800	-10.8301
▁86	-10.8301
▁95	-10.8301
▁99	-10.8301
▁AED	-10.8301
▁Al	-10.8301
▁Alex	-10.8301
▁Alice	-10.8301
▁An	-10.8301
▁Bank	-10.8301
▁Bilbao	-10.8301
▁Bệnh	-10.8301
▁CAD	-10.8301
▁Cameron	-10.8301
▁Christmas	-10.8301
▁Congress	-10.8301
▁Cơ	-10.8301
▁Cả	-10.8301
▁Emily	-10.8301
▁England	-10.8301
▁Florida	-10.8301
▁Footscray	-10.8301
▁Frank	-10.8301
▁Gaddafi	-10.8301
▁George	-10.8301
▁Giới	-10.8301
▁Haiti	-10.8301
▁Hình	-10.8301
▁Hội	-10.8301
▁James	-10.8301
▁Jay	-10.8301
▁Kim	-10.8301
▁Koreans	-10.8301
▁Kết	-10.8301
▁Lake	-10.8301
▁Le	-10.8301
▁Lewis	-10.8301
▁MIT	-10.8301
▁Makoko	-10.8301
▁Mars	-10.8301
▁Mục	-10.8301
▁Nga	-10.8301
▁Nobody	-10.8301
▁OECD	-10.8301
▁Once	-10.8301
▁PH	-10.8301
▁Ray	-10.8301
▁Remi	-10.8301
▁Scott	-10.8301
▁Stasi	-10.8301
▁Steven	-10.8301
▁Sweden	-10.8301
▁Thanks	-10.8301
▁Thomas	-10.8301
▁Two	-10.8301
▁Tương	-10.8301
▁UCLA	-10.8301
▁Washington	-10.8301
▁Which	-10.8301
▁Y	-10.8301
▁additional	-10.8301
▁advice	-10.8301
▁algorithms	-10.8301
▁allow	-10.8301
▁applied	-10.8301
▁architect	-10.8301
▁arrested	-10.8301
▁asphalt	-10.8301
▁authority	-10.8301
▁beat	-10.8301
▁begins	-10.8301
▁believed	-10.8301
▁bia	-10.8301
▁billions	-10.8301
▁biological	-10.8301
▁biology	-10.8301
▁birth	-10.8301
▁bits	-10.8301
▁boat	-10.8301
▁bom	-10.8301
▁bone	-10.8301
▁bread	-10.8301
▁buying	-10.8301
▁bão	-10.8301
▁bìa	-10.8301
▁bụi	-10.8301
▁calls	-10.8301
▁card	-10.8301
▁cat	-10.8301
▁challenges	-10.8301
▁childhood	-10.8301
▁choosing	-10.8301
▁chày	-10.8301
▁chăng	-10.8301
▁chằm	-10.8301
▁chọc	-10.8301
▁chục	-10.8301
▁chừng	-10.8301
▁cognitive	-10.8301
▁comfortable	-10.8301
▁conditions	-10.8301
▁conflicts	-10.8301
▁connect	-10.8301
▁considered	-10.8301
▁construction	-10.8301
▁court	-10.8301
▁cows	-10.8301
▁creates	-10.8301
▁crime	-10.8301
▁criminal	-10.8301
▁critical	-10.8301
▁cất	-10.8301
▁cấy	-10.8301
▁cẩn	-10.8301
▁cắp	-10.8301
▁cừu	-10.8301
▁dance	-10.8301
▁daughters	-10.8301
▁definitely	-10.8301
▁describe	-10.8301
▁desire	-10.8301
▁detect	-10.8301
▁dinner	-10.8301
▁distant	-10.8301
▁dollar	-10.8301
▁double	-10.8301
▁doubt	-10.8301
▁driving	-10.8301
▁dynamic	-10.8301
▁dò	-10.8301
▁dập	-10.8301
▁dẻo	-10.8301
▁dội	-10.8301
▁earth	-10.8301
▁ecosystem	-10.8301
▁elections	-10.8301
▁encouraged	-10.8301
▁enormous	-10.8301
▁enslaved	-10.8301
▁equal	-10.8301
▁equipment	-10.8301
▁etc	-10.8301
▁evening	-10.8301
▁event	-10.8301
▁events	-10.8301
▁evolutionary	-10.8301
▁experiments	-10.8301
▁exploring	-10.8301
▁extinct	-10.8301
▁factory	-10.8301
▁falling	-10.8301
▁features	-10.8301
▁file	-10.8301
▁filled	-10.8301
▁floor	-10.8301
▁focused	-10.8301
▁folks	-10.8301
▁forces	-10.8301
▁function	-10.8301
▁gold	-10.8301
▁gotten	-10.8301
▁gram	-10.8301
▁gấu	-10.8301
▁healthcare	-10.8301
▁heavy	-10.8301
▁herself	-10.8301
▁huýt	-10.8301
▁hàn	-10.8301
▁hưu	-10.8301
▁impacts	-10.8301
▁increased	-10.8301
▁influence	-10.8301
▁interactive	-10.8301
▁interests	-10.8301
▁keeping	-10.8301
▁kho	-10.8301
▁khoan	-10.8301
▁khói	-10.8301
▁laws	-10.8301
▁legs	-10.8301
▁lesson	-10.8301
▁logic	-10.8301
▁lây	-10.8301
▁lấp	-10.8301
▁mai	-10.8301
▁majority	-10.8301
▁malaria	-10.8301
▁management	-10.8301
▁marriage	-10.8301
▁massive	-10.8301
▁members	-10.8301
▁mention	-10.8301
▁minute	-10.8301
▁miệng	-10.8301
▁mom	-10.8301
▁moral	-10.8301
▁motivated	-10.8301
▁mountain	-10.8301
▁mouse	-10.8301
▁mò	-10.8301
▁mười	-10.8301
▁mạn	-10.8301
▁mệnh	-10.8301
▁necessarily	-10.8301
▁nervous	-10.8301
▁nhãn	-10.8301
▁notion	-10.8301
▁nuclear	-10.8301
▁nốt	-10.8301
▁opening	-10.8301
▁opens	-10.8301
▁ordinary	-10.8301
▁participate	-10.8301
▁party	-10.8301
▁penicillin	-10.8301
▁percentage	-10.8301
▁phenomenon	-10.8301
▁phrase	-10.8301
▁physics	-10.8301
▁phím	-10.8301
▁picked	-10.8301
▁plane	-10.8301
▁pocket	-10.8301
▁pointing	-10.8301
▁popular	-10.8301
▁president	-10.8301
▁pressure	-10.8301
▁print	-10.8301
▁providing	-10.8301
▁push	-10.8301
▁raise	-10.8301
▁rare	-10.8301
▁record	-10.8301
▁relations	-10.8301
▁relationships	-10.8301
▁replace	-10.8301
▁report	-10.8301
▁researchers	-10.8301
▁rung	-10.8301
▁rô	-10.8301
▁sad	-10.8301
▁sees	-10.8301
▁senses	-10.8301
▁sentence	-10.8301
▁shut	-10.8301
▁solar	-10.8301
▁solved	-10.8301
▁soul	-10.8301
▁spaces	-10.8301
▁speed	-10.8301
▁spot	-10.8301
▁statistics	-10.8301
▁sticks	-10.8301
▁strategy	-10.8301
▁strength	-10.8301
▁student	-10.8301
▁surprising	-10.8301
▁súp	-10.8301
▁sưu	-10.8301
▁target	-10.8301
▁telescope	-10.8301
▁term	-10.8301
▁tested	-10.8301
▁testing	-10.8301
▁text	-10.8301
▁thuẫn	-10.8301
▁thép	-10.8301
▁thắc	-10.8301
▁thịnh	-10.8301
▁thổi	-10.8301
▁treat	-10.8301
▁truyện	-10.8301
▁tráng	-10.8301
▁trưa	-10.8301
▁trần	-10.8301
▁trộm	-10.8301
▁turning	-10.8301
▁tám	-10.8301
▁táo	-10.8301
▁tây	-10.8301
▁tò	-10.8301
▁vay	-10.8301
▁version	-10.8301
▁vụn	-10.8301
▁waiting	-10.8301
▁waste	-10.8301
▁window	-10.8301
▁wonder	-10.8301
▁wondering	-10.8301
▁xà	-10.8301
▁xâm	-10.8301
▁xóm	-10.8301
▁xứ	-10.8301
▁óc	-10.8301
▁ôm	-10.8301
▁đuôi	-10.8301
▁đắn	-10.8301
▁đố	-10.8301
▁Ả	-10.8301
▁ấm	-10.8301
▁ức	-10.8301
▁130	-10.9637
▁1996	-10.9637
▁2008	-10.9637
▁50.000	-10.9637
▁Also	-10.9637
▁Bình	-10.9637
▁Canada	-10.9637
▁Chuyện	-10.9637
▁Cháu	-10.9637
▁Cần	-10.9637
▁Cập	-10.9637
▁Delhi	-10.9637
▁Did	-10.9637
▁Everybody	-10.9637
▁Friday	-10.9637
▁German	-10.9637
▁Germany	-10.9637
▁Gulf	-10.9637
▁Hi	-10.9637
▁Hoá	-10.9637
▁Indeed	-10.9637
▁Israeli	-10.9637
▁Italy	-10.9637
▁Joe	-10.9637
▁Khoa	-10.9637
▁Koran	-10.9637
▁Lebanon	-10.9637
▁Lisa	-10.9637
▁Liên	-10.9637
▁London	-10.9637
▁Lý	-10.9637
▁Lạp	-10.9637
▁MT	-10.9637
▁Michigan	-10.9637
▁Microsoft	-10.9637
▁Màu	-10.9637
▁Mặt	-10.9637
▁NASA	-10.9637
▁Nghe	-10.9637
▁Nguyên	-10.9637
▁Nô	-10.9637
▁Nơi	-10.9637
▁Nước	-10.9637
▁Only	-10.9637
▁Peter	-10.9637
▁Phụ	-10.9637
▁Quan	-10.9637
▁Quý	-10.9637
▁R	-10.9637
▁Rõ	-10.9637
▁See	-10.9637
▁Subtitles	-10.9637
▁TEDMED	-10.9637
▁They've	-10.9637
▁Thành	-10.9637
▁Tinh	-10.9637
▁Transcript	-10.9637
▁Trường	-10.9637
▁Tên	-10.9637
▁Tình	-10.9637
▁Tổng	-10.9637
▁U.K.	-10.9637
▁University	-10.9637
▁Whitacre	-10.9637
▁Would	-10.9637
▁absolute	-10.9637
▁adapt	-10.9637
▁affect	-10.9637
▁agree	-10.9637
▁ain't	-10.9637
▁aircraft	-10.9637
▁amazingly	-10.9637
▁appear	-10.9637
▁appeared	-10.9637
▁apply	-10.9637
▁argue	-10.9637
▁arms	-10.9637
▁army	-10.9637
▁ashamed	-10.9637
▁atmosphere	-10.9637
▁ball	-10.9637
▁base	-10.9637
▁battery	-10.9637
▁breast	-10.9637
▁bridge	-10.9637
▁bright	-10.9637
▁brilliant	-10.9637
▁brings	-10.9637
▁burning	-10.9637
▁button	-10.9637
▁bách	-10.9637
▁bận	-10.9637
▁bột	-10.9637
▁bờ	-10.9637
▁cake	-10.9637
▁cartoons	-10.9637
▁chu	-10.9637
▁châm	-10.9637
▁chăn	-10.9637
▁chả	-10.9637
▁chớp	-10.9637
▁citizen	-10.9637
▁civilization	-10.9637
▁clinic	-10.9637
▁co	-10.9637
▁collect	-10.9637
▁collected	-10.9637
▁colors	-10.9637
▁commitment	-10.9637
▁complexity	-10.9637
▁component	-10.9637
▁concepts	-10.9637
▁concerned	-10.9637
▁concrete	-10.9637
▁conference	-10.9637
▁connections	-10.9637
▁conscious	-10.9637
▁conversations	-10.9637
▁curious	-10.9637
▁customers	-10.9637
▁cướp	-10.9637
▁cưỡng	-10.9637
▁cấm	-10.9637
▁cậy	-10.9637
▁cốc	-10.9637
▁cởi	-10.9637
▁cụt	-10.9637
▁dangerous	-10.9637
▁define	-10.9637
▁designers	-10.9637
▁destroy	-10.9637
▁destruction	-10.9637
▁details	-10.9637
▁directly	-10.9637
▁dirty	-10.9637
▁display	-10.9637
▁distance	-10.9637
▁divide	-10.9637
▁doctors	-10.9637
▁drink	-10.9637
▁dâm	-10.9637
▁dã	-10.9637
▁dải	-10.9637
▁dắt	-10.9637
▁eating	-10.9637
▁educate	-10.9637
▁eggs	-10.9637
▁electronics	-10.9637
▁embrace	-10.9637
▁emerging	-10.9637
▁ends	-10.9637
▁enter	-10.9637
▁equally	-10.9637
▁everyday	-10.9637
▁excited	-10.9637
▁exercise	-10.9637
▁extra	-10.9637
▁facts	-10.9637
▁farm	-10.9637
▁fashion	-10.9637
▁father's	-10.9637
▁fellow	-10.9637
▁fiction	-10.9637
▁fires	-10.9637
▁flow	-10.9637
▁flower	-10.9637
▁foreign	-10.9637
▁funds	-10.9637
▁gene	-10.9637
▁generations	-10.9637
▁giật	-10.9637
▁glucose	-10.9637
▁goals	-10.9637
▁governments	-10.9637
▁gravity	-10.9637
▁healing	-10.9637
▁heat	-10.9637
▁heo	-10.9637
▁hiding	-10.9637
▁himself	-10.9637
▁hiếp	-10.9637
▁hoành	-10.9637
▁hoả	-10.9637
▁hungry	-10.9637
▁hunting	-10.9637
▁hông	-10.9637
▁hùng	-10.9637
▁hắn	-10.9637
▁hằng	-10.9637
▁hố	-10.9637
▁hỗn	-10.9637
▁iPod	-10.9637
▁inner	-10.9637
▁institutions	-10.9637
▁intellectual	-10.9637
▁interactions	-10.9637
▁international	-10.9637
▁internet	-10.9637
▁invite	-10.9637
▁jail	-10.9637
▁khoái	-10.9637
▁khuyên	-10.9637
▁khô	-10.9637
▁khơi	-10.9637
▁khẩn	-10.9637
▁kiệt	-10.9637
▁knowing	-10.9637
▁kịp	-10.9637
▁labor	-10.9637
▁laid	-10.9637
▁largest	-10.9637
▁laser	-10.9637
▁launched	-10.9637
▁leadership	-10.9637
▁leaving	-10.9637
▁length	-10.9637
▁location	-10.9637
▁lâm	-10.9637
▁lùi	-10.9637
▁lăn	-10.9637
▁lũng	-10.9637
▁lượt	-10.9637
▁lận	-10.9637
▁medication	-10.9637
▁mission	-10.9637
▁mistake	-10.9637
▁mix	-10.9637
▁mâu	-10.9637
▁mượn	-10.9637
▁mọc	-10.9637
▁mộng	-10.9637
▁narrative	-10.9637
▁nation	-10.9637
▁nearly	-10.9637
▁ngu	-10.9637
▁ngã	-10.9637
▁ngón	-10.9637
▁ngắm	-10.9637
▁nhàng	-10.9637
▁nhấn	-10.9637
▁nhầm	-10.9637
▁nhặt	-10.9637
▁normally	-10.9637
▁nảy	-10.9637
▁nọ	-10.9637
▁opposite	-10.9637
▁organism	-10.9637
▁organs	-10.9637
▁painting	-10.9637
▁parking	-10.9637
▁passed	-10.9637
▁patent	-10.9637
▁personally	-10.9637
▁photographs	-10.9637
▁picking	-10.9637
▁pills	-10.9637
▁players	-10.9637
▁possibility	-10.9637
▁potentially	-10.9637
▁pound	-10.9637
▁poverty	-10.9637
▁powers	-10.9637
▁prepare	-10.9637
▁printing	-10.9637
▁processing	-10.9637
▁psychological	-10.9637
▁purpose	-10.9637
▁puts	-10.9637
▁putting	-10.9637
▁quad	-10.9637
▁quãng	-10.9637
▁quét	-10.9637
▁react	-10.9637
▁recall	-10.9637
▁receive	-10.9637
▁relatively	-10.9637
▁remove	-10.9637
▁requires	-10.9637
▁resistance	-10.9637
▁respect	-10.9637
▁responsible	-10.9637
▁restaurant	-10.9637
▁return	-10.9637
▁rid	-10.9637
▁rise	-10.9637
▁runs	-10.9637
▁ráp	-10.9637
▁rưỡi	-10.9637
▁san	-10.9637
▁satellite	-10.9637
▁search	-10.9637
▁sector	-10.9637
▁secure	-10.9637
▁sensitive	-10.9637
▁sentences	-10.9637
▁separate	-10.9637
▁separated	-10.9637
▁ship	-10.9637
▁signals	-10.9637
▁significant	-10.9637
▁sing	-10.9637
▁sophisticated	-10.9637
▁specifically	-10.9637
▁spending	-10.9637
▁standard	-10.9637
▁star	-10.9637
▁station	-10.9637
▁steal	-10.9637
▁steel	-10.9637
▁struck	-10.9637
▁struggle	-10.9637
▁studying	-10.9637
▁surprise	-10.9637
▁technical	-10.9637
▁technique	-10.9637
▁techniques	-10.9637
▁tha	-10.9637
▁thiệt	-10.9637
▁thoảng	-10.9637
▁threat	-10.9637
▁throw	-10.9637
▁thuê	-10.9637
▁thuế	-10.9637
▁thánh	-10.9637
▁thăng	-10.9637
▁thưa	-10.9637
▁thầm	-10.9637
▁thằng	-10.9637
▁thổ	-10.9637
▁toward	-10.9637
▁trade	-10.9637
▁traditional	-10.9637
▁tremendous	-10.9637
▁trial	-10.9637
▁truck	-10.9637
▁tuyển	-10.9637
▁tĩnh	-10.9637
▁tặng	-10.9637
▁tủ	-10.9637
▁understood	-10.9637
▁unfortunately	-10.9637
▁universal	-10.9637
▁uses	-10.9637
▁vang	-10.9637
▁variety	-10.9637
▁victims	-10.9637
▁vinh	-10.9637
▁voices	-10.9637
▁von	-10.9637
▁vâng	-10.9637
▁vĩnh	-10.9637
▁vở	-10.9637
▁wake	-10.9637
▁weren't	-10.9637
▁wide	-10.9637
▁wireless	-10.9637
▁wisdom	-10.9637
▁woo	-10.9637
▁worst	-10.9637
▁xám	-10.9637
▁zoom	-10.9637
▁Ánh	-10.9637
▁điêu	-10.9637
▁đụng	-10.9637
▁đực	-10.9637
▁ốm	-10.9637
▁0	-11.1178
▁1860	-11.1178
▁1970s	-11.1178
▁1984	-11.1178
▁19th	-11.1178
▁2012	-11.1178
▁31	-11.1178
▁32	-11.1178
▁33	-11.1178
▁450	-11.1178
▁46	-11.1178
▁700	-11.1178
▁87	-11.1178
▁AM	-11.1178
▁Abraham	-11.1178
▁Again	-11.1178
▁Amsterdam	-11.1178
▁Amy	-11.1178
▁Any	-11.1178
▁Arab	-11.1178
▁Aye	-11.1178
▁Babylon	-11.1178
▁Bali	-11.1178
▁Baltimore	-11.1178
▁Bao	-11.1178
▁Beau	-11.1178
▁Berlin	-11.1178
▁Brown	-11.1178
▁Bush	-11.1178
▁Bên	-11.1178
▁Bước	-11.1178
▁CO2	-11.1178
▁Caltech	-11.1178
▁Cambridge	-11.1178
▁Cargill	-11.1178
▁Carnegie	-11.1178
▁Chad	-11.1178
▁Chiến	-11.1178
▁Citizens	-11.1178
▁Connect	-11.1178
▁Copenhagen	-11.1178
▁Cứ	-11.1178
▁Daniel	-11.1178
▁Derek	-11.1178
▁Diana	-11.1178
▁Drucker	-11.1178
▁Dân	-11.1178
▁EDI	-11.1178
▁Eventually	-11.1178
▁Feynman	-11.1178
▁Five	-11.1178
▁Francisco	-11.1178
▁Gabby	-11.1178
▁Gary	-11.1178
▁Gia	-11.1178
▁Giả	-11.1178
▁Green	-11.1178
▁Greene	-11.1178
▁Hans	-11.1178
▁Islam	-11.1178
▁Janine	-11.1178
▁Jeff	-11.1178
▁Jim	-11.1178
▁Joan	-11.1178
▁Johnson	-11.1178
▁Jones	-11.1178
▁July	-11.1178
▁Ken	-11.1178
▁Kepler	-11.1178
▁Khoảng	-11.1178
▁Khán	-11.1178
▁Kiribati	-11.1178
▁Kofi	-11.1178
▁Kể	-11.1178
▁L.A.	-11.1178
▁Libyan	-11.1178
▁Life	-11.1178
▁Listen	-11.1178
▁Manuru	-11.1178
▁Mark	-11.1178
▁Martin	-11.1178
▁Mike	-11.1178
▁Montana	-11.1178
▁More	-11.1178
▁Moses	-11.1178
▁Muhammad	-11.1178
▁Muslim	-11.1178
▁Muslims	-11.1178
▁Mĩ	-11.1178
▁Nairobi	-11.1178
▁Nature	-11.1178
▁Nghệ	-11.1178
▁Ngài	-11.1178
▁Ok	-11.1178
▁Park	-11.1178
▁Parkinson	-11.1178
▁Parkinson's	-11.1178
▁Peru	-11.1178
▁Phương	-11.1178
▁Pole	-11.1178
▁RIAA	-11.1178
▁Rằng	-11.1178
▁Siberia	-11.1178
▁Silicon	-11.1178
▁Silver	-11.1178
▁Sobule	-11.1178
▁Stephen	-11.1178
▁Số	-11.1178
▁Sức	-11.1178
▁T	-11.1178
▁Tan	-11.1178
▁Ten	-11.1178
▁Teszler	-11.1178
▁Texas	-11.1178
▁Thì	-11.1178
▁Thổ	-11.1178
▁Thử	-11.1178
▁Tin	-11.1178
▁Tiếp	-11.1178
▁Trẻ	-11.1178
▁Turns	-11.1178
▁Unfortunately	-11.1178
▁Victor	-11.1178
▁X-quang	-11.1178
▁Xã	-11.1178
▁Yahoo	-11.1178
▁Yet	-11.1178
▁Yorker	-11.1178
▁acting	-11.1178
▁actions	-11.1178
▁activist	-11.1178
▁advertising	-11.1178
▁affects	-11.1178
▁afterward	-11.1178
▁agencies	-11.1178
▁aging	-11.1178
▁allowing	-11.1178
▁animation	-11.1178
▁antibiotics	-11.1178
▁application	-11.1178
▁appreciate	-11.1178
▁architects	-11.1178
▁arm	-11.1178
▁article	-11.1178
▁aside	-11.1178
▁attack	-11.1178
▁attractive	-11.1178
▁awareness	-11.1178
▁awkward	-11.1178
▁background	-11.1178
▁backyard	-11.1178
▁ballet	-11.1178
▁banjo	-11.1178
▁basis	-11.1178
▁behave	-11.1178
▁bloop	-11.1178
▁borders	-11.1178
▁boss	-11.1178
▁bound	-11.1178
▁breath	-11.1178
▁bricks	-11.1178
▁broken	-11.1178
▁brothers	-11.1178
▁bubble	-11.1178
▁bubbles	-11.1178
▁béo	-11.1178
▁bù	-11.1178
▁bấm	-11.1178
▁campaign	-11.1178
▁canh	-11.1178
▁carefully	-11.1178
▁carried	-11.1178
▁category	-11.1178
▁caused	-11.1178
▁cave	-11.1178
▁chai	-11.1178
▁chain	-11.1178
▁chip	-11.1178
▁choáng	-11.1178
▁church	-11.1178
▁chìa	-11.1178
▁chúa	-11.1178
▁chúc	-11.1178
▁chấn	-11.1178
▁chẩn	-11.1178
▁chốn	-11.1178
▁clever	-11.1178
▁client	-11.1178
▁collecting	-11.1178
▁combine	-11.1178
▁competition	-11.1178
▁confident	-11.1178
▁consciousness	-11.1178
▁consumed	-11.1178
▁contact	-11.1178
▁controlling	-11.1178
▁convince	-11.1178
▁copy	-11.1178
▁corner	-11.1178
▁covered	-11.1178
▁current	-11.1178
▁currently	-11.1178
▁damaged	-11.1178
▁dao	-11.1178
▁date	-11.1178
▁deer	-11.1178
▁definition	-11.1178
▁degree	-11.1178
▁delivered	-11.1178
▁demand	-11.1178
▁depression	-11.1178
▁desert	-11.1178
▁destiny	-11.1178
▁determines	-11.1178
▁dictionary	-11.1178
▁disabled	-11.1178
▁disappear	-11.1178
▁disorders	-11.1178
▁draw	-11.1178
▁driver	-11.1178
▁dropped	-11.1178
▁dust	-11.1178
▁dũng	-11.1178
▁dị	-11.1178
▁earthquake	-11.1178
▁edge	-11.1178
▁educated	-11.1178
▁effectively	-11.1178
▁efforts	-11.1178
▁electrical	-11.1178
▁elephant	-11.1178
▁emotion	-11.1178
▁employees	-11.1178
▁entropy	-11.1178
▁environments	-11.1178
▁epidemic	-11.1178
▁equation	-11.1178
▁escape	-11.1178
▁establish	-11.1178
▁evolve	-11.1178
▁experts	-11.1178
▁fabric	-11.1178
▁fail	-11.1178
▁failure	-11.1178
▁fake	-11.1178
▁false	-11.1178
▁famine	-11.1178
▁finish	-11.1178
▁fishing	-11.1178
▁flies	-11.1178
▁floating	-11.1178
▁forever	-11.1178
▁founder	-11.1178
▁fourth	-11.1178
▁frustrated	-11.1178
▁fund	-11.1178
▁ga	-11.1178
▁galaxies	-11.1178
▁galaxy	-11.1178
▁gallon	-11.1178
▁garbage	-11.1178
▁gas	-11.1178
▁ghê	-11.1178
▁giant	-11.1178
▁giàn	-11.1178
▁gom	-11.1178
▁gray	-11.1178
▁gun	-11.1178
▁guns	-11.1178
▁gũi	-11.1178
▁gầy	-11.1178
▁harder	-11.1178
▁hasn't	-11.1178
▁he'd	-11.1178
▁hide	-11.1178
▁highest	-11.1178
▁holding	-11.1178
▁holes	-11.1178
▁hopefully	-11.1178
▁husband	-11.1178
▁hò	-11.1178
▁hòn	-11.1178
▁hạch	-11.1178
▁hồng	-11.1178
▁importance	-11.1178
▁infected	-11.1178
▁ingredients	-11.1178
▁initial	-11.1178
▁input	-11.1178
▁inspiration	-11.1178
▁instant	-11.1178
▁instrument	-11.1178
▁intelligent	-11.1178
▁intent	-11.1178
▁invest	-11.1178
▁it'll	-11.1178
▁journalists	-11.1178
▁joy	-11.1178
▁khao	-11.1178
▁khuyết	-11.1178
▁khéo	-11.1178
▁khía	-11.1178
▁khôn	-11.1178
▁khẳng	-11.1178
▁kit	-11.1178
▁kìa	-11.1178
▁ladies	-11.1178
▁lake	-11.1178
▁lau	-11.1178
▁leap	-11.1178
▁lifestyle	-11.1178
▁liked	-11.1178
▁limited	-11.1178
▁littleBits	-11.1178
▁livestock	-11.1178
▁logo	-11.1178
▁lovely	-11.1178
▁lê	-11.1178
▁lông	-11.1178
▁lưỡi	-11.1178
▁lưỡng	-11.1178
▁lạm	-11.1178
▁lặn	-11.1178
▁master	-11.1178
▁meat	-11.1178
▁milk	-11.1178
▁miracle	-11.1178
▁missing	-11.1178
▁molecule	-11.1178
▁motivation	-11.1178
▁motors	-11.1178
▁màng	-11.1178
▁mòn	-11.1178
▁móng	-11.1178
▁mươi	-11.1178
▁mẩu	-11.1178
▁mến	-11.1178
▁mốc	-11.1178
▁mỡ	-11.1178
▁nations	-11.1178
▁navigate	-11.1178
▁neighbors	-11.1178
▁nets	-11.1178
▁networks	-11.1178
▁neuron	-11.1178
▁ngưỡng	-11.1178
▁ngọt	-11.1178
▁ngừa	-11.1178
▁nhắm	-11.1178
▁nhủ	-11.1178
▁novel	-11.1178
▁nén	-11.1178
▁nản	-11.1178
▁nề	-11.1178
▁nộ	-11.1178
▁nụ	-11.1178
▁objective	-11.1178
▁observe	-11.1178
▁oldest	-11.1178
▁operate	-11.1178
▁originally	-11.1178
▁outcomes	-11.1178
▁outer	-11.1178
▁overall	-11.1178
▁overcome	-11.1178
▁oxytocin	-11.1178
▁pants	-11.1178
▁pause	-11.1178
▁paying	-11.1178
▁peak	-11.1178
▁perceived	-11.1178
▁person's	-11.1178
▁photography	-11.1178
▁physicians	-11.1178
▁phú	-11.1178
▁phạt	-11.1178
▁phổi	-11.1178
▁placed	-11.1178
▁poet	-11.1178
▁poster	-11.1178
▁preference	-11.1178
▁previously	-11.1178
▁principle	-11.1178
▁professional	-11.1178
▁properties	-11.1178
▁proposed	-11.1178
▁pushed	-11.1178
▁puzzle	-11.1178
▁qualities	-11.1178
▁quát	-11.1178
▁raised	-11.1178
▁raising	-11.1178
▁ranh	-11.1178
▁refugees	-11.1178
▁regime	-11.1178
▁regular	-11.1178
▁relate	-11.1178
▁released	-11.1178
▁remain	-11.1178
▁representation	-11.1178
▁require	-11.1178
▁requirements	-11.1178
▁responsibility	-11.1178
▁returned	-11.1178
▁revolutionary	-11.1178
▁route	-11.1178
▁rural	-11.1178
▁rải	-11.1178
▁rễ	-11.1178
▁rửa	-11.1178
▁saving	-11.1178
▁scene	-11.1178
▁selling	-11.1178
▁served	-11.1178
▁shadow	-11.1178
▁shaped	-11.1178
▁she'd	-11.1178
▁sheep	-11.1178
▁simpler	-11.1178
▁sits	-11.1178
▁slightly	-11.1178
▁smell	-11.1178
▁soap	-11.1178
▁solving	-11.1178
▁soup	-11.1178
▁soạn	-11.1178
▁speaking	-11.1178
▁speech	-11.1178
▁staff	-11.1178
▁steps	-11.1178
▁stone	-11.1178
▁stops	-11.1178
▁stupid	-11.1178
▁substance	-11.1178
▁succeed	-11.1178
▁sung	-11.1178
▁sunlight	-11.1178
▁supply	-11.1178
▁supported	-11.1178
▁surely	-11.1178
▁surgeon	-11.1178
▁surrounded	-11.1178
▁symptoms	-11.1178
▁sướng	-11.1178
▁sếp	-11.1178
▁tackle	-11.1178
▁talks	-11.1178
▁tap	-11.1178
▁tape	-11.1178
▁tears	-11.1178
▁technological	-11.1178
▁throughout	-11.1178
▁thung	-11.1178
▁thám	-11.1178
▁thô	-11.1178
▁thừng	-11.1178
▁tissue	-11.1178
▁tiệc	-11.1178
▁tiệm	-11.1178
▁today's	-11.1178
▁tragic	-11.1178
▁transport	-11.1178
▁treated	-11.1178
▁trials	-11.1178
▁trouble	-11.1178
▁trùm	-11.1178
▁trú	-11.1178
▁trăng	-11.1178
▁trạm	-11.1178
▁tsunami	-11.1178
▁tân	-11.1178
▁tước	-11.1178
▁tớ	-11.1178
▁tựa	-11.1178
▁uncertainty	-11.1178
▁uốn	-11.1178
▁vaccine	-11.1178
▁vaccines	-11.1178
▁videos	-11.1178
▁virtual	-11.1178
▁võng	-11.1178
▁wealthy	-11.1178
▁wedding	-11.1178
▁wheelchair	-11.1178
▁whenever	-11.1178
▁whose	-11.1178
▁wires	-11.1178
▁worker	-11.1178
▁xôi	-11.1178
▁xơ	-11.1178
▁xướng	-11.1178
▁xưởng	-11.1178
▁Âm	-11.1178
▁Điểm	-11.1178
▁đan	-11.1178
▁đáo	-11.1178
▁đôla	-11.1178
▁đậu	-11.1178
▁đồi	-11.1178
▁ồn	-11.1178
▁.'	-11.3001
▁100,000	-11.3001
▁140	-11.3001
▁1995	-11.3001
▁2,000	-11.3001
▁2006	-11.3001
▁23	-11.3001
▁60s	-11.3001
▁64	-11.3001
▁85	-11.3001
▁Act	-11.3001
▁Actually	-11.3001
▁Ah	-11.3001
▁Al-Qaeda	-11.3001
▁Anyway	-11.3001
▁Award	-11.3001
▁B	-11.3001
▁Back	-11.3001
▁Barefoot	-11.3001
▁Basically	-11.3001
▁British	-11.3001
▁Buy	-11.3001
▁Bố	-11.3001
▁Bức	-11.3001
▁C.	-11.3001
▁CEO	-11.3001
▁Center	-11.3001
▁Chile	-11.3001
▁Chiếc	-11.3001
▁Chào	-11.3001
▁Coast	-11.3001
▁Copernicus	-11.3001
▁Cộng	-11.3001
▁D	-11.3001
▁Dad	-11.3001
▁Disney	-11.3001
▁During	-11.3001
▁Dự	-11.3001
▁European	-11.3001
▁Evan	-11.3001
▁Free	-11.3001
▁Gaza	-11.3001
▁Girl	-11.3001
▁Giáng	-11.3001
▁Giáo	-11.3001
▁Golden	-11.3001
▁Grace	-11.3001
▁Gô-li-át	-11.3001
▁Her	-11.3001
▁Hoà	-11.3001
▁Hoàn	-11.3001
▁Hoả	-11.3001
▁Indians	-11.3001
▁Institute	-11.3001
▁Island	-11.3001
▁Jack	-11.3001
▁January	-11.3001
▁K	-11.3001
▁Kennedy	-11.3001
▁Love	-11.3001
▁Lấy	-11.3001
▁Melinda	-11.3001
▁Mộc	-11.3001
▁NGO	-11.3001
▁NO	-11.3001
▁Never	-11.3001
▁Ngân	-11.3001
▁Nhóm	-11.3001
▁Nhờ	-11.3001
▁Nikola	-11.3001
▁Nữ	-11.3001
▁O'Toole	-11.3001
▁Oprah	-11.3001
▁Out	-11.3001
▁Perhaps	-11.3001
▁Phát	-11.3001
▁Phật	-11.3001
▁Quyền	-11.3001
▁Rebecca	-11.3001
▁Research	-11.3001
▁Rwanda	-11.3001
▁Rập	-11.3001
▁S	-11.3001
▁Seattle	-11.3001
▁Sinh	-11.3001
▁Slaves	-11.3001
▁Spanish	-11.3001
▁Sputnik	-11.3001
▁Suppose	-11.3001
▁Susan	-11.3001
▁Sweeney	-11.3001
▁Tesla	-11.3001
▁Their	-11.3001
▁Three	-11.3001
▁Thánh	-11.3001
▁Thượng	-11.3001
▁Tiến	-11.3001
▁Tiền	-11.3001
▁Together	-11.3001
▁Tuyệt	-11.3001
▁Tuần	-11.3001
▁Tính	-11.3001
▁Tế	-11.3001
▁Virginia	-11.3001
▁Volta	-11.3001
▁Vui	-11.3001
▁Văn	-11.3001
▁Vẫn	-11.3001
▁Within	-11.3001
▁Women's	-11.3001
▁X	-11.3001
▁Xem	-11.3001
▁abstract	-11.3001
▁account	-11.3001
▁accurate	-11.3001
▁acts	-11.3001
▁added	-11.3001
▁address	-11.3001
▁admit	-11.3001
▁adopted	-11.3001
▁adult	-11.3001
▁advanced	-11.3001
▁advantage	-11.3001
▁advocate	-11.3001
▁afford	-11.3001
▁afternoon	-11.3001
▁airplane	-11.3001
▁alternative	-11.3001
▁amongst	-11.3001
▁ancient	-11.3001
▁angle	-11.3001
▁answers	-11.3001
▁appears	-11.3001
▁appropriate	-11.3001
▁appropriately	-11.3001
▁architecture	-11.3001
▁arrive	-11.3001
▁arrived	-11.3001
▁artwork	-11.3001
▁asks	-11.3001
▁attached	-11.3001
▁attempting	-11.3001
▁author	-11.3001
▁autistic	-11.3001
▁avoid	-11.3001
▁awe	-11.3001
▁awesome	-11.3001
▁backward	-11.3001
▁barely	-11.3001
▁baseline	-11.3001
▁beer	-11.3001
▁behaviors	-11.3001
▁bias	-11.3001
▁bizarre	-11.3001
▁blah	-11.3001
▁blocked	-11.3001
▁blocks	-11.3001
▁bones	-11.3001
▁breaking	-11.3001
▁brother	-11.3001
▁busy	-11.3001
▁buýt	-11.3001
▁bó	-11.3001
▁bẩn	-11.3001
▁bẫy	-11.3001
▁bắp	-11.3001
▁bếp	-11.3001
▁bọ	-11.3001
▁cafe	-11.3001
▁camp	-11.3001
▁capable	-11.3001
▁capitalism	-11.3001
▁causing	-11.3001
▁cents	-11.3001
▁chair	-11.3001
▁chairs	-11.3001
▁challenging	-11.3001
▁chances	-11.3001
▁channel	-11.3001
▁character	-11.3001
▁chose	-11.3001
▁chua	-11.3001
▁chui	-11.3001
▁chuối	-11.3001
▁chóc	-11.3001
▁chôn	-11.3001
▁chước	-11.3001
▁chốc	-11.3001
▁circles	-11.3001
▁circuits	-11.3001
▁claims	-11.3001
▁classical	-11.3001
▁climb	-11.3001
▁clouds	-11.3001
▁collection	-11.3001
▁combination	-11.3001
▁command	-11.3001
▁committed	-11.3001
▁conclude	-11.3001
▁conclusion	-11.3001
▁conduct	-11.3001
▁conservation	-11.3001
▁constantly	-11.3001
▁consume	-11.3001
▁consumer	-11.3001
▁consumption	-11.3001
▁conventional	-11.3001
▁cook	-11.3001
▁counting	-11.3001
▁courses	-11.3001
▁cousin	-11.3001
▁covers	-11.3001
▁cow	-11.3001
▁cross	-11.3001
▁crowd	-11.3001
▁cube	-11.3001
▁cultures	-11.3001
▁cào	-11.3001
▁cương	-11.3001
▁cạn	-11.3001
▁cống	-11.3001
▁cột	-11.3001
▁cự	-11.3001
▁cựu	-11.3001
▁darkness	-11.3001
▁debate	-11.3001
▁dedicated	-11.3001
▁deeper	-11.3001
▁demo	-11.3001
▁depends	-11.3001
▁determine	-11.3001
▁dignity	-11.3001
▁divided	-11.3001
▁division	-11.3001
▁documenting	-11.3001
▁documents	-11.3001
▁dopamine	-11.3001
▁dreams	-11.3001
▁drone	-11.3001
▁drove	-11.3001
▁drowned	-11.3001
▁dumb	-11.3001
▁duyên	-11.3001
▁duyệt	-11.3001
▁dại	-11.3001
▁economies	-11.3001
▁electric	-11.3001
▁elements	-11.3001
▁elephants	-11.3001
▁emergency	-11.3001
▁empowerment	-11.3001
▁enabled	-11.3001
▁encounter	-11.3001
▁endangered	-11.3001
▁ending	-11.3001
▁endless	-11.3001
▁engagement	-11.3001
▁engaging	-11.3001
▁entertainment	-11.3001
▁enzyme	-11.3001
▁epic	-11.3001
▁equations	-11.3001
▁era	-11.3001
▁exact	-11.3001
▁existence	-11.3001
▁existing	-11.3001
▁experiences	-11.3001
▁expertise	-11.3001
▁explained	-11.3001
▁explaining	-11.3001
▁explains	-11.3001
▁explanation	-11.3001
▁explorers	-11.3001
▁facing	-11.3001
▁failing	-11.3001
▁fails	-11.3001
▁farmers	-11.3001
▁fascinated	-11.3001
▁fat	-11.3001
▁feedback	-11.3001
▁feeding	-11.3001
▁feels	-11.3001
▁fell	-11.3001
▁fiber	-11.3001
▁fill	-11.3001
▁films	-11.3001
▁fixed	-11.3001
▁flight	-11.3001
▁flu	-11.3001
▁football	-11.3001
▁forests	-11.3001
▁forget	-11.3001
▁formaldehyde	-11.3001
▁formed	-11.3001
▁fossil	-11.3001
▁frankly	-11.3001
▁fundamental	-11.3001
▁gan	-11.3001
▁gasoline	-11.3001
▁gentlemen	-11.3001
▁ghen	-11.3001
▁giáp	-11.3001
▁globe	-11.3001
▁gorgeous	-11.3001
▁gosh	-11.3001
▁gotta	-11.3001
▁grabbed	-11.3001
▁graduate	-11.3001
▁grocery	-11.3001
▁gã	-11.3001
▁hackers	-11.3001
▁hadn't	-11.3001
▁handle	-11.3001
▁heaven	-11.3001
▁helpful	-11.3001
▁hidden	-11.3001
▁hiệp	-11.3001
▁however	-11.3001
▁humor	-11.3001
▁hunger	-11.3001
▁hurt	-11.3001
▁hãm	-11.3001
▁hải	-11.3001
▁illusions	-11.3001
▁inequality	-11.3001
▁initiative	-11.3001
▁inmates	-11.3001
▁interventions	-11.3001
▁judge	-11.3001
▁keys	-11.3001
▁khóc	-11.3001
▁khớp	-11.3001
▁kẹo	-11.3001
▁kẹt	-11.3001
▁landed	-11.3001
▁laptop	-11.3001
▁largely	-11.3001
▁leg	-11.3001
▁license	-11.3001
▁limbs	-11.3001
▁literature	-11.3001
▁liều	-11.3001
▁lobby	-11.3001
▁long-term	-11.3001
▁luckily	-11.3001
▁luỹ	-11.3001
▁lãm	-11.3001
▁lén	-11.3001
▁lúa	-11.3001
▁lật	-11.3001
▁lỏng	-11.3001
▁lờ	-11.3001
▁manage	-11.3001
▁manh	-11.3001
▁mankind	-11.3001
▁maps	-11.3001
▁massively	-11.3001
▁match	-11.3001
▁medications	-11.3001
▁medium	-11.3001
▁meetings	-11.3001
▁memories	-11.3001
▁messages	-11.3001
▁metaphor	-11.3001
▁method	-11.3001
▁mines	-11.3001
▁miêu	-11.3001
▁moon	-11.3001
▁motion	-11.3001
▁mountains	-11.3001
▁movements	-11.3001
▁muscle	-11.3001
▁mì	-11.3001
▁mòng	-11.3001
▁mệt	-11.3001
▁mổ	-11.3001
▁nai	-11.3001
▁needle	-11.3001
▁neighbor	-11.3001
▁nerve	-11.3001
▁net	-11.3001
▁neuroscience	-11.3001
▁nghiệt	-11.3001
▁ngoan	-11.3001
▁ngon	-11.3001
▁ngư	-11.3001
▁ngắt	-11.3001
▁ngủi	-11.3001
▁nho	-11.3001
▁nhuộm	-11.3001
▁nhàm	-11.3001
▁nhóc	-11.3001
▁nhường	-11.3001
▁ninja	-11.3001
▁nor	-11.3001
▁notes	-11.3001
▁này.	-11.3001
▁nêu	-11.3001
▁nồng	-11.3001
▁odds	-11.3001
▁operations	-11.3001
▁opinion	-11.3001
▁options	-11.3001
▁organ	-11.3001
▁organic	-11.3001
▁organized	-11.3001
▁pages	-11.3001
▁panels	-11.3001
▁paradox	-11.3001
▁participation	-11.3001
▁partner	-11.3001
▁pass	-11.3001
▁perception	-11.3001
▁performance	-11.3001
▁phiến	-11.3001
▁phì	-11.3001
▁phơi	-11.3001
▁phồng	-11.3001
▁plants	-11.3001
▁platform	-11.3001
▁poem	-11.3001
▁pointed	-11.3001
▁pollen	-11.3001
▁populations	-11.3001
▁prepared	-11.3001
▁presentation	-11.3001
▁prevent	-11.3001
▁primary	-11.3001
▁printer	-11.3001
▁probability	-11.3001
▁producing	-11.3001
▁professor	-11.3001
▁promises	-11.3001
▁protected	-11.3001
▁protection	-11.3001
▁prototypes	-11.3001
▁provided	-11.3001
▁psychology	-11.3001
▁quit	-11.3001
▁rabbit	-11.3001
▁rating	-11.3001
▁ratio	-11.3001
▁receiving	-11.3001
▁reduced	-11.3001
▁relevant	-11.3001
▁replicate	-11.3001
▁represents	-11.3001
▁rescue	-11.3001
▁rescued	-11.3001
▁resilience	-11.3001
▁resist	-11.3001
▁resistant	-11.3001
▁resource	-11.3001
▁restaurants	-11.3001
▁revenue	-11.3001
▁reward	-11.3001
▁rewards	-11.3001
▁ride	-11.3001
▁ritual	-11.3001
▁roads	-11.3001
▁rock	-11.3001
▁root	-11.3001
▁roots	-11.3001
▁rope	-11.3001
▁routine	-11.3001
▁ruồi	-11.3001
▁rẩy	-11.3001
▁rậm	-11.3001
▁rộn	-11.3001
▁rỡ	-11.3001
▁sales	-11.3001
▁sample	-11.3001
▁sanitation	-11.3001
▁seat	-11.3001
▁secrets	-11.3001
▁seeds	-11.3001
▁sends	-11.3001
▁sensor	-11.3001
▁sets	-11.3001
▁shadows	-11.3001
▁shark	-11.3001
▁shop	-11.3001
▁shopping	-11.3001
▁sick	-11.3001
▁sight	-11.3001
▁sign	-11.3001
▁signal	-11.3001
▁silent	-11.3001
▁simplest	-11.3001
▁simulation	-11.3001
▁skill	-11.3001
▁slowly	-11.3001
▁snow	-11.3001
▁soldiers	-11.3001
▁someday	-11.3001
▁sources	-11.3001
▁spectacular	-11.3001
▁split	-11.3001
▁stages	-11.3001
▁standards	-11.3001
▁static	-11.3001
▁status	-11.3001
▁stopping	-11.3001
▁stored	-11.3001
▁stores	-11.3001
▁storm	-11.3001
▁strategic	-11.3001
▁string	-11.3001
▁submitted	-11.3001
▁successfully	-11.3001
▁sugar	-11.3001
▁suit	-11.3001
▁surgery	-11.3001
▁survival	-11.3001
▁survived	-11.3001
▁swim	-11.3001
▁sùng	-11.3001
▁sườn	-11.3001
▁tall	-11.3001
▁television	-11.3001
▁tension	-11.3001
▁tests	-11.3001
▁texting	-11.3001
▁theme	-11.3001
▁they'd	-11.3001
▁thinks	-11.3001
▁thoughts	-11.3001
▁thoái	-11.3001
▁threw	-11.3001
▁thrown	-11.3001
▁thua	-11.3001
▁tháp	-11.3001
▁thôn	-11.3001
▁thấm	-11.3001
▁thẳm	-11.3001
▁thỉnh	-11.3001
▁ti	-11.3001
▁tiễn	-11.3001
▁tomorrow	-11.3001
▁tour	-11.3001
▁towns	-11.3001
▁tradition	-11.3001
▁traditions	-11.3001
▁trained	-11.3001
▁traveling	-11.3001
▁treatments	-11.3001
▁trend	-11.3001
▁tries	-11.3001
▁trượt	-11.3001
▁trục	-11.3001
▁tune	-11.3001
▁tunnel	-11.3001
▁tuý	-11.3001
▁tát	-11.3001
▁tít	-11.3001
▁tơ	-11.3001
▁tạ	-11.3001
▁tảo	-11.3001
▁tịch	-11.3001
▁ubiquitous	-11.3001
▁ultimate	-11.3001
▁understands	-11.3001
▁virút	-11.3001
▁volume	-11.3001
▁volunteer	-11.3001
▁vs	-11.3001
▁vác	-11.3001
▁vây	-11.3001
▁vòi	-11.3001
▁vướng	-11.3001
▁vượng	-11.3001
▁vẹn	-11.3001
▁washing	-11.3001
▁wearing	-11.3001
▁weather	-11.3001
▁welcome	-11.3001
▁whatsoever	-11.3001
▁wheel	-11.3001
▁wherever	-11.3001
▁wi-fi	-11.3001
▁windows	-11.3001
▁woke	-11.3001
▁wooden	-11.3001
▁worry	-11.3001
▁wrap	-11.3001
▁writer	-11.3001
▁xen	-11.3001
▁xích	-11.3001
▁xíu	-11.3001
▁zone	-11.3001
▁Ôi	-11.3001
▁Điện	-11.3001
▁Đến	-11.3001
▁Đột	-11.3001
▁đom	-11.3001
▁đáy	-11.3001
▁đâm	-11.3001
▁đóm	-11.3001
▁đô-la	-11.3001
▁đảng	-11.3001
▁đẽ	-11.3001
▁đế	-11.3001
▁đếm	-11.3001
▁địch	-11.3001
▁đới	-11.3001
▁ả	-11.3001
▁ổ	-11.3001
▁+	-11.5233
▁1.6	-11.5233
▁10.000	-11.5233
▁120	-11.5233
▁170	-11.5233
▁180	-11.5233
▁1879	-11.5233
▁1926	-11.5233
▁1930	-11.5233
▁1930s	-11.5233
▁1960	-11.5233
▁1970	-11.5233
▁1983	-11.5233
▁1986	-11.5233
▁1987	-11.5233
▁1988	-11.5233
▁1989	-11.5233
▁1990	-11.5233
▁1993	-11.5233
▁1999	-11.5233
▁2002	-11.5233
▁2003	-11.5233
▁2011	-11.5233
▁2027	-11.5233
▁2030	-11.5233
▁21st	-11.5233
▁25,000	-11.5233
▁250,000	-11.5233
▁300,000	-11.5233
▁331	-11.5233
▁34	-11.5233
▁38	-11.5233
▁3S	-11.5233
▁4.000	-11.5233
▁401	-11.5233
▁404	-11.5233
▁5,000	-11.5233
▁53	-11.5233
▁581	-11.5233
▁6.3	-11.5233
▁76	-11.5233
▁78	-11.5233
▁A4	-11.5233
▁AB	-11.5233
▁ATM	-11.5233
▁AV	-11.5233
▁Aberdeen	-11.5233
▁About	-11.5233
▁According	-11.5233
▁Adam	-11.5233
▁Aditi	-11.5233
▁Alberto	-11.5233
▁Algeria	-11.5233
▁Ali	-11.5233
▁Alisa	-11.5233
▁Allen	-11.5233
▁Andrew	-11.5233
▁Argentina	-11.5233
▁BRCK	-11.5233
▁Baer	-11.5233
▁Bang	-11.5233
▁Bangalore	-11.5233
▁Behind	-11.5233
▁Beijing	-11.5233
▁Being	-11.5233
▁Bell	-11.5233
▁Benghazi	-11.5233
▁Berns	-11.5233
▁Bertie	-11.5233
▁Beverly	-11.5233
▁Black	-11.5233
▁Boing	-11.5233
▁Browne	-11.5233
▁Buckminster	-11.5233
▁Burkina	-11.5233
▁Bác	-11.5233
▁Báo	-11.5233
▁Bảo	-11.5233
▁Bảy	-11.5233
▁CAPTCHA	-11.5233
▁CD	-11.5233
▁Canary	-11.5233
▁Cao	-11.5233
▁Carolina	-11.5233
▁Catherine	-11.5233
▁Cesar	-11.5233
▁Chen	-11.5233
▁Chicago	-11.5233
▁Christchurch	-11.5233
▁Chị	-11.5233
▁Coca-Cola	-11.5233
▁Colin	-11.5233
▁College	-11.5233
▁Commandments	-11.5233
▁Congo	-11.5233
▁Cuba	-11.5233
▁Cyrus	-11.5233
▁Cổ	-11.5233
▁DP	-11.5233
▁Dalai	-11.5233
▁Dame	-11.5233
▁Damon	-11.5233
▁Day	-11.5233
▁Dearborn	-11.5233
▁DigiNotar	-11.5233
▁Doanh	-11.5233
▁Does	-11.5233
▁Dolly	-11.5233
▁Dòng	-11.5233
▁Eden	-11.5233
▁Edward	-11.5233
▁Egyptian	-11.5233
▁El	-11.5233
▁Eleanor	-11.5233
▁Electrolux	-11.5233
▁Enterprise	-11.5233
▁Eritrea	-11.5233
▁Esperance	-11.5233
▁Estonia	-11.5233
▁Ethiopia	-11.5233
▁Exactly	-11.5233
▁Faso	-11.5233
▁Feki	-11.5233
▁Fellow	-11.5233
▁Fez	-11.5233
▁Finally	-11.5233
▁Financial	-11.5233
▁France	-11.5233
▁Frederic	-11.5233
▁Freedom	-11.5233
▁Fuller	-11.5233
▁GPS	-11.5233
▁Galapagos	-11.5233
▁Gando	-11.5233
▁Gates	-11.5233
▁Gehry	-11.5233
▁Geoff	-11.5233
▁Geographic	-11.5233
▁Giá	-11.5233
▁Goldman	-11.5233
▁Gordon	-11.5233
▁Graham	-11.5233
▁Greg	-11.5233
▁Ground	-11.5233
▁Growing	-11.5233
▁Guy	-11.5233
▁Han	-11.5233
▁Health	-11.5233
▁Henry	-11.5233
▁Himalayas	-11.5233
▁Hindu	-11.5233
▁Hirshhorn	-11.5233
▁Hiệp	-11.5233
▁Hold	-11.5233
▁Hollywood	-11.5233
▁Honolulu	-11.5233
▁House	-11.5233
▁Howard	-11.5233
▁Hoàng	-11.5233
▁Hoạ	-11.5233
▁Hungary	-11.5233
▁IBM	-11.5233
▁II	-11.5233
▁Illinois	-11.5233
▁Indiana	-11.5233
▁Indonesia	-11.5233
▁International	-11.5233
▁Islamic	-11.5233
▁Ivan	-11.5233
▁J	-11.5233
▁JK	-11.5233
▁Jamie	-11.5233
▁Jan	-11.5233
▁Jane	-11.5233
▁Jerusalem	-11.5233
▁Jimmy	-11.5233
▁Joey	-11.5233
▁Johnny	-11.5233
▁Josh	-11.5233
▁Journal	-11.5233
▁Jupiter	-11.5233
▁KIPP	-11.5233
▁Kansas	-11.5233
▁Kate	-11.5233
▁Kay	-11.5233
▁Kelly	-11.5233
▁Kenneth	-11.5233
▁Kerala	-11.5233
▁Kevin	-11.5233
▁Khadija	-11.5233
▁Kibera	-11.5233
▁Kyoto	-11.5233
▁Kính	-11.5233
▁Kỹ	-11.5233
▁LED	-11.5233
▁Laden	-11.5233
▁Lama	-11.5233
▁Lane	-11.5233
▁Langley	-11.5233
▁Lanka	-11.5233
▁Las	-11.5233
▁Leonardo	-11.5233
▁Leopold	-11.5233
▁Lester	-11.5233
▁Little	-11.5233
▁Lotto	-11.5233
▁Lớn	-11.5233
▁MG	-11.5233
▁Mahabharata	-11.5233
▁Mahmoud	-11.5233
▁Man	-11.5233
▁Manhattan	-11.5233
▁Maori	-11.5233
▁March	-11.5233
▁Marcin	-11.5233
▁Marco	-11.5233
▁Marshall	-11.5233
▁Matt	-11.5233
▁McGonigal	-11.5233
▁McKay	-11.5233
▁Melendez	-11.5233
▁Merced	-11.5233
▁Mine-golia	-11.5233
▁Mississippi	-11.5233
▁Mister	-11.5233
▁Miền	-11.5233
▁Monkey	-11.5233
▁Moscow	-11.5233
▁Mozambique	-11.5233
▁Mulgan	-11.5233
▁Mình	-11.5233
▁Mùa	-11.5233
▁Nate	-11.5233
▁Nearly	-11.5233
▁Nellie	-11.5233
▁Newcastle	-11.5233
▁Newfoundland	-11.5233
▁Nghiên	-11.5233
▁Nghĩ	-11.5233
▁Ngôi	-11.5233
▁Ngôn	-11.5233
▁Ngược	-11.5233
▁Nick	-11.5233
▁Nike	-11.5233
▁Nobel	-11.5233
▁None	-11.5233
▁Nothing	-11.5233
▁Nỗi	-11.5233
▁Ocean	-11.5233
▁Odysseus	-11.5233
▁Oldenburg	-11.5233
▁Oliver	-11.5233
▁Olympics	-11.5233
▁Osama	-11.5233
▁Other	-11.5233
▁Paganini	-11.5233
▁Patel	-11.5233
▁Patrick	-11.5233
▁Paula	-11.5233
▁Pearl	-11.5233
▁Pedro	-11.5233
▁Pennsylvania	-11.5233
▁Ph.D.	-11.5233
▁Pierre	-11.5233
▁Please	-11.5233
▁Plus	-11.5233
▁President	-11.5233
▁Qaeda	-11.5233
▁Quân	-11.5233
▁Quả	-11.5233
▁RG	-11.5233
▁Radcliffe	-11.5233
▁Rajasthan	-11.5233
▁Revolution	-11.5233
▁Rezero	-11.5233
▁River	-11.5233
▁Robert	-11.5233
▁Robicsek	-11.5233
▁Rome	-11.5233
▁Rosling	-11.5233
▁Russia	-11.5233
▁SANCCOB	-11.5233
▁SK	-11.5233
▁Sahara	-11.5233
▁Sai	-11.5233
▁Samuel	-11.5233
▁Sarah	-11.5233
▁Say	-11.5233
▁Science	-11.5233
▁Scratch	-11.5233
▁Seng-ts'an	-11.5233
▁Serra	-11.5233
▁Seven	-11.5233
▁Shankardass	-11.5233
▁Shannon	-11.5233
▁Sheila	-11.5233
▁Shinozuka	-11.5233
▁Sierra	-11.5233
▁Sir	-11.5233
▁Sleep	-11.5233
▁Smith	-11.5233
▁Somalia	-11.5233
▁Soon	-11.5233
▁Sri	-11.5233
▁Stanford	-11.5233
▁Stream	-11.5233
▁Stripling	-11.5233
▁Sun	-11.5233
▁Suy	-11.5233
▁Sylvia	-11.5233
▁Sĩ	-11.5233
▁TEDGlobal	-11.5233
▁TNCs	-11.5233
▁TS	-11.5233
▁Talks	-11.5233
▁Tanzania	-11.5233
▁Tasmania	-11.5233
▁Taylor	-11.5233
▁Tennessee	-11.5233
▁Things	-11.5233
▁Third	-11.5233
▁Thiết	-11.5233
▁Thôi	-11.5233
▁Thông	-11.5233
▁Tilonia	-11.5233
▁Time	-11.5233
▁Torre	-11.5233
▁Toyota	-11.5233
▁Toán	-11.5233
▁Trở	-11.5233
▁UC	-11.5233
▁Ultimately	-11.5233
▁Using	-11.5233
▁Uỷ	-11.5233
▁Valley	-11.5233
▁Vegas	-11.5233
▁Venezuela	-11.5233
▁Video	-11.5233
▁Vogue	-11.5233
▁Vũ	-11.5233
▁Vịnh	-11.5233
▁War	-11.5233
▁Warren	-11.5233
▁We'd	-11.5233
▁White	-11.5233
▁Wikimedia	-11.5233
▁Wilson	-11.5233
▁Windows	-11.5233
▁Wislawa	-11.5233
▁Women	-11.5233
▁Woo	-11.5233
▁Xây	-11.5233
▁Ze	-11.5233
▁Zero	-11.5233
▁Zimbabwe	-11.5233
▁_	-11.5233
▁absorb	-11.5233
▁abused	-11.5233
▁accessible	-11.5233
▁accident	-11.5233
▁accidents	-11.5233
▁activities	-11.5233
▁adults	-11.5233
▁advance	-11.5233
▁aesthetic	-11.5233
▁agency	-11.5233
▁agreed	-11.5233
▁al	-11.5233
▁alike	-11.5233
▁amateur	-11.5233
▁amazed	-11.5233
▁analyze	-11.5233
▁angry	-11.5233
▁antibodies	-11.5233
▁apartments	-11.5233
▁applications	-11.5233
▁arguing	-11.5233
▁argument	-11.5233
▁articles	-11.5233
▁assuming	-11.5233
▁asteroid	-11.5233
▁athletes	-11.5233
▁athletic	-11.5233
▁attacked	-11.5233
▁attempt	-11.5233
▁authorities	-11.5233
▁automatically	-11.5233
▁bags	-11.5233
▁baseball	-11.5233
▁batteries	-11.5233
▁beans	-11.5233
▁bears	-11.5233
▁believing	-11.5233
▁bin	-11.5233
▁biologist	-11.5233
▁blank	-11.5233
▁blew	-11.5233
▁bold	-11.5233
▁bored	-11.5233
▁boring	-11.5233
▁brand	-11.5233
▁brave	-11.5233
▁brief	-11.5233
▁bullet	-11.5233
▁burned	-11.5233
▁butterflies	-11.5233
▁bá	-11.5233
▁bê	-11.5233
▁bóp	-11.5233
▁bú	-11.5233
▁băn	-11.5233
▁bơ	-11.5233
▁bơm	-11.5233
▁bọc	-11.5233
▁bỏng	-11.5233
▁bổng	-11.5233
▁calculations	-11.5233
▁campus	-11.5233
▁candidate	-11.5233
▁canvas	-11.5233
▁capabilities	-11.5233
▁capita	-11.5233
▁capture	-11.5233
▁catching	-11.5233
▁centers	-11.5233
▁centuries	-11.5233
▁chains	-11.5233
▁channels	-11.5233
▁chapters	-11.5233
▁characters	-11.5233
▁charities	-11.5233
▁charming	-11.5233
▁chart	-11.5233
▁cheat	-11.5233
▁chicken	-11.5233
▁chiết	-11.5233
▁chuồng	-11.5233
▁chín	-11.5233
▁chổi	-11.5233
▁chở	-11.5233
▁chợt	-11.5233
▁circle	-11.5233
▁circuit	-11.5233
▁claim	-11.5233
▁classes	-11.5233
▁classroom	-11.5233
▁clock	-11.5233
▁clothing	-11.5233
▁coach	-11.5233
▁coat	-11.5233
▁codes	-11.5233
▁collaboration	-11.5233
▁collaborative	-11.5233
▁collapses	-11.5233
▁colony	-11.5233
▁colored	-11.5233
▁companion	-11.5233
▁compare	-11.5233
▁components	-11.5233
▁condition	-11.5233
▁condoms	-11.5233
▁confidence	-11.5233
▁confronted	-11.5233
▁contain	-11.5233
▁continent	-11.5233
▁contract	-11.5233
▁contrary	-11.5233
▁controlled	-11.5233
▁convinced	-11.5233
▁cooperation	-11.5233
▁copyright	-11.5233
▁cortex	-11.5233
▁count	-11.5233
▁courthouse	-11.5233
▁courtroom	-11.5233
▁creature	-11.5233
▁credit	-11.5233
▁crimes	-11.5233
▁crossing	-11.5233
▁cup	-11.5233
▁curve	-11.5233
▁cài	-11.5233
▁cáp	-11.5233
▁cáu	-11.5233
▁cú	-11.5233
▁cược	-11.5233
▁dactyl	-11.5233
▁dai	-11.5233
▁danger	-11.5233
▁dare	-11.5233
▁deaths	-11.5233
▁decade	-11.5233
▁decreased	-11.5233
▁defining	-11.5233
▁degradation	-11.5233
▁dense	-11.5233
▁density	-11.5233
▁department	-11.5233
▁deserve	-11.5233
▁designing	-11.5233
▁desk	-11.5233
▁desperately	-11.5233
▁destroyed	-11.5233
▁detected	-11.5233
▁determined	-11.5233
▁diagnosed	-11.5233
▁dialogue	-11.5233
▁difficulty	-11.5233
▁dioxide	-11.5233
▁direct	-11.5233
▁directions	-11.5233
▁directive	-11.5233
▁disasters	-11.5233
▁discuss	-11.5233
▁distribution	-11.5233
▁disturbing	-11.5233
▁diversity	-11.5233
▁dogs	-11.5233
▁dominated	-11.5233
▁doors	-11.5233
▁dot	-11.5233
▁drinking	-11.5233
▁drops	-11.5233
▁dược	-11.5233
▁dốc	-11.5233
▁dỗ	-11.5233
▁dời	-11.5233
▁dở	-11.5233
▁eBay	-11.5233
▁earliest	-11.5233
▁easiest	-11.5233
▁educational	-11.5233
▁ego	-11.5233
▁eighth	-11.5233
▁emerged	-11.5233
▁enemies	-11.5233
▁engineer	-11.5233
▁enjoying	-11.5233
▁entitled	-11.5233
▁entrepreneurship	-11.5233
▁equality	-11.5233
▁error	-11.5233
▁eternal	-11.5233
▁exception	-11.5233
▁exchange	-11.5233
▁existed	-11.5233
▁exotic	-11.5233
▁expert	-11.5233
▁extract	-11.5233
▁faced	-11.5233
▁facility	-11.5233
▁factories	-11.5233
▁fairly	-11.5233
▁falls	-11.5233
▁fan	-11.5233
▁farmer	-11.5233
▁feed	-11.5233
▁feminine	-11.5233
▁fighting	-11.5233
▁figured	-11.5233
▁fireflies	-11.5233
▁flash	-11.5233
▁flew	-11.5233
▁fold	-11.5233
▁foot	-11.5233
▁former	-11.5233
▁fortunate	-11.5233
▁fortune	-11.5233
▁founded	-11.5233
▁freezing	-11.5233
▁frequencies	-11.5233
▁frozen	-11.5233
▁fundamentally	-11.5233
▁funding	-11.5233
▁gangsta	-11.5233
▁gap	-11.5233
▁garage	-11.5233
▁gear	-11.5233
▁gel	-11.5233
▁geo-engineering	-11.5233
▁gieo	-11.5233
▁giày	-11.5233
▁giầy	-11.5233
▁glass	-11.5233
▁glimpse	-11.5233
▁globally	-11.5233
▁golden	-11.5233
▁goods	-11.5233
▁grab	-11.5233
▁granted	-11.5233
▁graph	-11.5233
▁greatest	-11.5233
▁greedy	-11.5233
▁grid	-11.5233
▁grown	-11.5233
▁guy's	-11.5233
▁gác	-11.5233
▁gán	-11.5233
▁gìn	-11.5233
▁gót	-11.5233
▁găngxtơ	-11.5233
▁gộp	-11.5233
▁habit	-11.5233
▁ham	-11.5233
▁happiest	-11.5233
▁hare	-11.5233
▁harm	-11.5233
▁historical	-11.5233
▁hits	-11.5233
▁hitting	-11.5233
▁hiên	-11.5233
▁ho	-11.5233
▁hoan	-11.5233
▁hollow	-11.5233
▁hometown	-11.5233
▁honesty	-11.5233
▁honored	-11.5233
▁hook	-11.5233
▁hopeful	-11.5233
▁hoping	-11.5233
▁horse	-11.5233
▁host	-11.5233
▁households	-11.5233
▁humility	-11.5233
▁hung	-11.5233
▁hàm	-11.5233
▁hét	-11.5233
▁hóc	-11.5233
▁hươu	-11.5233
▁hẹp	-11.5233
▁hệt	-11.5233
▁hổng	-11.5233
▁identical	-11.5233
▁identify	-11.5233
▁illusion	-11.5233
▁imagined	-11.5233
▁imaging	-11.5233
▁immediate	-11.5233
▁impactful	-11.5233
▁impression	-11.5233
▁inch	-11.5233
▁inches	-11.5233
▁incident	-11.5233
▁include	-11.5233
▁increasing	-11.5233
▁independence	-11.5233
▁indicator	-11.5233
▁infection	-11.5233
▁informed	-11.5233
▁injury	-11.5233
▁insecure	-11.5233
▁insights	-11.5233
▁instructions	-11.5233
▁insurance	-11.5233
▁intact	-11.5233
▁integration	-11.5233
▁intention	-11.5233
▁interaction	-11.5233
▁interface	-11.5233
▁internal	-11.5233
▁intervene	-11.5233
▁inventing	-11.5233
▁inventor	-11.5233
▁island	-11.5233
▁isolated	-11.5233
▁items	-11.5233
▁jam	-11.5233
▁joined	-11.5233
▁joyful	-11.5233
▁jump	-11.5233
▁jungle	-11.5233
▁khen	-11.5233
▁khiêm	-11.5233
▁khiêu	-11.5233
▁khiếm	-11.5233
▁khoăn	-11.5233
▁khuya	-11.5233
▁khác.	-11.5233
▁khờ	-11.5233
▁labeled	-11.5233
▁lacked	-11.5233
▁lam	-11.5233
▁landscape	-11.5233
▁landscapes	-11.5233
▁languages	-11.5233
▁latest	-11.5233
▁laughed	-11.5233
▁layer	-11.5233
▁lets	-11.5233
▁leverage	-11.5233
▁link	-11.5233
▁listened	-11.5233
▁liver	-11.5233
▁load	-11.5233
▁lottery	-11.5233
▁lovers	-11.5233
▁lui	-11.5233
▁lying	-11.5233
▁lách	-11.5233
▁lát	-11.5233
▁léo	-11.5233
▁lường	-11.5233
▁lề	-11.5233
▁lọt	-11.5233
▁lợn	-11.5233
▁magnificent	-11.5233
▁mail	-11.5233
▁mainly	-11.5233
▁man-made	-11.5233
▁managers	-11.5233
▁marketing	-11.5233
▁married	-11.5233
▁meal	-11.5233
▁measured	-11.5233
▁mechanism	-11.5233
▁medicines	-11.5233
▁metal	-11.5233
▁meter	-11.5233
▁meters	-11.5233
▁metric	-11.5233
▁microRNA	-11.5233
▁microscope	-11.5233
▁mile	-11.5233
▁molecular	-11.5233
▁moth	-11.5233
▁mother's	-11.5233
▁mouth	-11.5233
▁multiple	-11.5233
▁muscles	-11.5233
▁muỗi	-11.5233
▁mycelium	-11.5233
▁mác	-11.5233
▁mãnh	-11.5233
▁mìn	-11.5233
▁môt	-11.5233
▁mảng	-11.5233
▁mầm	-11.5233
▁mỏi	-11.5233
▁mỏng	-11.5233
▁names	-11.5233
▁narrow	-11.5233
▁nearby	-11.5233
▁nearest	-11.5233
▁neck	-11.5233
▁nghiêng	-11.5233
▁nghiền	-11.5233
▁nghênh	-11.5233
▁nghẽn	-11.5233
▁ngâm	-11.5233
▁ngô	-11.5233
▁ngộ	-11.5233
▁ngục	-11.5233
▁nhi	-11.5233
▁nhiễu	-11.5233
▁nhún	-11.5233
▁nhộn	-11.5233
▁non	-11.5233
▁nonprofit	-11.5233
▁nose	-11.5233
▁nung	-11.5233
▁nuối	-11.5233
▁nâu	-11.5233
▁núm	-11.5233
▁nơ-ron	-11.5233
▁nứt	-11.5233
▁obsession	-11.5233
▁occur	-11.5233
▁offered	-11.5233
▁officer	-11.5233
▁official	-11.5233
▁ongoing	-11.5233
▁onstage	-11.5233
▁opossum	-11.5233
▁opposition	-11.5233
▁orientation	-11.5233
▁ought	-11.5233
▁overwhelming	-11.5233
▁pack	-11.5233
▁packed	-11.5233
▁painful	-11.5233
▁painted	-11.5233
▁paintings	-11.5233
▁pair	-11.5233
▁papers	-11.5233
▁parties	-11.5233
▁passes	-11.5233
▁passions	-11.5233
▁password	-11.5233
▁patience	-11.5233
▁peaceful	-11.5233
▁pen	-11.5233
▁perform	-11.5233
▁pervasive	-11.5233
▁phase	-11.5233
▁philosophy	-11.5233
▁phiêu	-11.5233
▁phiếm	-11.5233
▁photographer	-11.5233
▁phu	-11.5233
▁physicist	-11.5233
▁phác	-11.5233
▁phẳng	-11.5233
▁phế	-11.5233
▁picks	-11.5233
▁pilot	-11.5233
▁plays	-11.5233
▁plumber	-11.5233
▁poison	-11.5233
▁policies	-11.5233
▁poorer	-11.5233
▁portrait	-11.5233
▁posed	-11.5233
▁posted	-11.5233
▁pounds	-11.5233
▁pour	-11.5233
▁practices	-11.5233
▁precious	-11.5233
▁predator	-11.5233
▁predict	-11.5233
▁predictions	-11.5233
▁prefer	-11.5233
▁pregnant	-11.5233
▁preparation	-11.5233
▁presenting	-11.5233
▁previous	-11.5233
▁primitive	-11.5233
▁profit	-11.5233
▁profits	-11.5233
▁promising	-11.5233
▁purple	-11.5233
▁quarter	-11.5233
▁que	-11.5233
▁quiet	-11.5233
▁quyến	-11.5233
▁quầy	-11.5233
▁quỷ	-11.5233
▁rage	-11.5233
▁randomly	-11.5233
▁rape	-11.5233
▁rarely	-11.5233
▁rates	-11.5233
▁rau	-11.5233
▁realities	-11.5233
▁reasonably	-11.5233
▁recover	-11.5233
▁reference	-11.5233
▁refugee	-11.5233
▁refuse	-11.5233
▁regions	-11.5233
▁regrets	-11.5233
▁related	-11.5233
▁relatives	-11.5233
▁release	-11.5233
▁releases	-11.5233
▁religions	-11.5233
▁remembered	-11.5233
▁repeatedly	-11.5233
▁represented	-11.5233
▁request	-11.5233
▁researching	-11.5233
▁resolve	-11.5233
▁respected	-11.5233
▁respiratory	-11.5233
▁responses	-11.5233
▁restore	-11.5233
▁restored	-11.5233
▁retirement	-11.5233
▁reunion	-11.5233
▁reverse	-11.5233
▁ring	-11.5233
▁rising	-11.5233
▁robotic	-11.5233
▁rule	-11.5233
▁rushed	-11.5233
▁rãi	-11.5233
▁rãnh	-11.5233
▁rèn	-11.5233
▁rũ	-11.5233
▁rắn	-11.5233
▁rực	-11.5233
▁safely	-11.5233
▁safety	-11.5233
▁sails	-11.5233
▁satellites	-11.5233
▁sauce	-11.5233
▁scan	-11.5233
▁scenario	-11.5233
▁scholarship	-11.5233
▁sciences	-11.5233
▁selected	-11.5233
▁sequence	-11.5233
▁serve	-11.5233
▁serving	-11.5233
▁session	-11.5233
▁shaft	-11.5233
▁sharing	-11.5233
▁shed	-11.5233
▁sheer	-11.5233
▁sheet	-11.5233
▁shell	-11.5233
▁shine	-11.5233
▁shining	-11.5233
▁shock	-11.5233
▁sides	-11.5233
▁silently	-11.5233
▁simplicity	-11.5233
▁sin	-11.5233
▁sites	-11.5233
▁situations	-11.5233
▁slave	-11.5233
▁sleeping	-11.5233
▁smallest	-11.5233
▁smartest	-11.5233
▁smartphone	-11.5233
▁smells	-11.5233
▁soft	-11.5233
▁someone's	-11.5233
▁somewhat	-11.5233
▁songs	-11.5233
▁southern	-11.5233
▁speaker	-11.5233
▁specialist	-11.5233
▁spectrum	-11.5233
▁sphere	-11.5233
▁spoke	-11.5233
▁sports	-11.5233
▁spots	-11.5233
▁stamp	-11.5233
▁staring	-11.5233
▁stayed	-11.5233
▁staying	-11.5233
▁storage	-11.5233
▁stranger	-11.5233
▁strangers	-11.5233
▁strategies	-11.5233
▁style	-11.5233
▁subtle	-11.5233
▁suburbs	-11.5233
▁suggests	-11.5233
▁suppose	-11.5233
▁survivor	-11.5233
▁sustainability	-11.5233
▁suýt	-11.5233
▁sạn	-11.5233
▁sấm	-11.5233
▁sắt	-11.5233
▁sủa	-11.5233
▁sửng	-11.5233
▁tables	-11.5233
▁tackling	-11.5233
▁tag	-11.5233
▁tail	-11.5233
▁tam	-11.5233
▁taxi	-11.5233
▁technically	-11.5233
▁teen	-11.5233
▁teenagers	-11.5233
▁tem	-11.5233
▁temporary	-11.5233
▁terrorism	-11.5233
▁testosterone	-11.5233
▁thiền	-11.5233
▁thoáng	-11.5233
▁thèm	-11.5233
▁thơm	-11.5233
▁thắn	-11.5233
▁thắp	-11.5233
▁thối	-11.5233
▁tied	-11.5233
▁tired	-11.5233
▁topic	-11.5233
▁tortured	-11.5233
▁touched	-11.5233
▁toys	-11.5233
▁toạ	-11.5233
▁tragedy	-11.5233
▁trail	-11.5233
▁transformed	-11.5233
▁treating	-11.5233
▁treo	-11.5233
▁tribe	-11.5233
▁trillion	-11.5233
▁trinh	-11.5233
▁triều	-11.5233
▁triệt	-11.5233
▁trucks	-11.5233
▁trusted	-11.5233
▁trật	-11.5233
▁trừng	-11.5233
▁trừu	-11.5233
▁tua	-11.5233
▁tuỵ	-11.5233
▁tuỷ	-11.5233
▁tê	-11.5233
▁tím	-11.5233
▁tôm	-11.5233
▁tản	-11.5233
▁tắm	-11.5233
▁tụt	-11.5233
▁ugly	-11.5233
▁universes	-11.5233
▁unlikely	-11.5233
▁unusual	-11.5233
▁uploaded	-11.5233
▁upset	-11.5233
▁urgent	-11.5233
▁vacant	-11.5233
▁vacation	-11.5233
▁valuable	-11.5233
▁van	-11.5233
▁veteran	-11.5233
▁violent	-11.5233
▁visceral	-11.5233
▁visit	-11.5233
▁voting	-11.5233
▁vulnerable	-11.5233
▁vách	-11.5233
▁vần	-11.5233
▁vẩn	-11.5233
▁vắt	-11.5233
▁vặt	-11.5233
▁vọt	-11.5233
▁vớ	-11.5233
▁waited	-11.5233
▁warm	-11.5233
▁warming	-11.5233
▁wars	-11.5233
▁wash	-11.5233
▁weak	-11.5233
▁weapon	-11.5233
▁weird	-11.5233
▁whale	-11.5233
▁whistles	-11.5233
▁whistling	-11.5233
▁wine	-11.5233
▁wise	-11.5233
▁witness	-11.5233
▁witnessed	-11.5233
▁wonders	-11.5233
▁wood	-11.5233
▁workplace	-11.5233
▁worlds	-11.5233
▁wound	-11.5233
▁xao	-11.5233
▁xá	-11.5233
▁xô	-11.5233
▁xăng	-11.5233
▁xỉ	-11.5233
▁xốp	-11.5233
▁younger	-11.5233
▁youth	-11.5233
▁zipper	-11.5233
▁Ít	-11.5233
▁âu	-11.5233
▁óng	-11.5233
▁Đi	-11.5233
▁Đường	-11.5233
▁Đạo	-11.5233
▁đai	-11.5233
▁đinh	-11.5233
▁đoạt	-11.5233
▁đà	-11.5233
▁đàm	-11.5233
▁đè	-11.5233
▁đòn	-11.5233
▁đúc	-11.5233
▁đền	-11.5233
▁đợt	-11.5233
▁ồ	-11.5233
▁Ừ	-11.5233
▁ừ	-11.5233
▁1,001	-11.811
▁1.000	-11.811
▁1.5	-11.811
▁12,000	-11.811
▁13th	-11.811
▁14th	-11.811
▁1957	-11.811
▁1980	-11.811
▁2.3	-11.811
▁28	-11.811
▁3,000	-11.811
▁3000	-11.811
▁36	-11.811
▁40s	-11.811
▁50s	-11.811
▁54	-11.811
▁600	-11.811
▁AO	-11.811
▁Ages	-11.811
▁Ajit	-11.811
▁Almost	-11.811
▁Along	-11.811
▁Although	-11.811
▁Anyone	-11.811
▁Apsara	-11.811
▁Apsaras	-11.811
▁Arabic	-11.811
▁Aristotle	-11.811
▁Ask	-11.811
▁Atlantic	-11.811
▁Audience	-11.811
▁Australian	-11.811
▁BJ	-11.811
▁BRD4	-11.811
▁Bangladesh	-11.811
▁Bear	-11.811
▁Bhutan	-11.811
▁Biểu	-11.811
▁Blair	-11.811
▁Bluetooth	-11.811
▁Bonnet	-11.811
▁Brazilian	-11.811
▁Buddhist	-11.811
▁Bắt	-11.811
▁Bị	-11.811
▁Bỏ	-11.811
▁Bờ	-11.811
▁CL	-11.811
▁Carlos	-11.811
▁Chernobyl	-11.811
▁Chia	-11.811
▁Children	-11.811
▁Christ	-11.811
▁Chuyến	-11.811
▁Chà	-11.811
▁Chân	-11.811
▁Clearly	-11.811
▁Computer	-11.811
▁Conference	-11.811
▁Consider	-11.811
▁Cuốn	-11.811
▁Cyber	-11.811
▁Cơn	-11.811
▁Cố	-11.811
▁Cửa	-11.811
▁DMV	-11.811
▁Data	-11.811
▁Democracy	-11.811
▁Despite	-11.811
▁Detroit	-11.811
▁Development	-11.811
▁Di	-11.811
▁Don	-11.811
▁Dựa	-11.811
▁Egypt	-11.811
▁F	-11.811
▁F.	-11.811
▁February	-11.811
▁Forget	-11.811
▁Fortunately	-11.811
▁Gandhi	-11.811
▁Garden	-11.811
▁Garone	-11.811
▁Gbla	-11.811
▁Genius	-11.811
▁Giai	-11.811
▁Goliath	-11.811
▁Greek	-11.811
▁Gì	-11.811
▁Had	-11.811
▁Hague	-11.811
▁Half	-11.811
▁Hall	-11.811
▁High	-11.811
▁Hockenberry	-11.811
▁Horn	-11.811
▁Hospital	-11.811
▁Hoạt	-11.811
▁Hungarian	-11.811
▁Hải	-11.811
▁Information	-11.811
▁Invest	-11.811
▁Iranians	-11.811
▁Islands	-11.811
▁Italians	-11.811
▁Japanese	-11.811
▁Jazz	-11.811
▁Jeopardy	-11.811
▁Jewish	-11.811
▁June	-11.811
▁Kids	-11.811
▁King	-11.811
▁Kiểu	-11.811
▁Lab	-11.811
▁Laos	-11.811
▁Last	-11.811
▁Latinh	-11.811
▁Latino	-11.811
▁Leone	-11.811
▁Light	-11.811
▁Line	-11.811
▁Looking	-11.811
▁Loài	-11.811
▁Loại	-11.811
▁Luật	-11.811
▁Lào	-11.811
▁Lại	-11.811
▁MPs	-11.811
▁MR	-11.811
▁Ma	-11.811
▁Maastricht	-11.811
▁Mahatma	-11.811
▁Makes	-11.811
▁Max	-11.811
▁Meggendorfer	-11.811
▁Minh	-11.811
▁Mission	-11.811
▁Mother	-11.811
▁Mountain	-11.811
▁Mrs.	-11.811
▁Ms.	-11.811
▁Mây	-11.811
▁NGOs	-11.811
▁Nghĩa	-11.811
▁Nghị	-11.811
▁Ngoại	-11.811
▁Nhanh	-11.811
▁Nhiên	-11.811
▁Nhiệm	-11.811
▁Nhiệt	-11.811
▁Niên	-11.811
▁Niềm	-11.811
▁Nạn	-11.811
▁Nội	-11.811
▁Obviously	-11.811
▁October	-11.811
▁Olympic	-11.811
▁Open	-11.811
▁Opossum	-11.811
▁Otherwise	-11.811
▁P	-11.811
▁P.	-11.811
▁Palestine	-11.811
▁Pants	-11.811
▁Parks	-11.811
▁Phân	-11.811
▁Phía	-11.811
▁Picasso	-11.811
▁Platform	-11.811
▁Qua	-11.811
▁Quay	-11.811
▁Quixote	-11.811
▁Quần	-11.811
▁RNA	-11.811
▁Rather	-11.811
▁Really	-11.811
▁Recently	-11.811
▁Red	-11.811
▁Riley	-11.811
▁Robot	-11.811
▁Russian	-11.811
▁Răn	-11.811
▁SMS	-11.811
▁Sapling	-11.811
▁Saturday	-11.811
▁Saturn	-11.811
▁Second	-11.811
▁Seventh	-11.811
▁Simon's	-11.811
▁Singapore	-11.811
▁Social	-11.811
▁Sorry	-11.811
▁Southern	-11.811
▁Soviet	-11.811
▁Spain	-11.811
▁Spider	-11.811
▁Splashy	-11.811
▁Stage	-11.811
▁Stalin	-11.811
▁Steffen	-11.811
▁Still	-11.811
▁Suddenly	-11.811
▁Sufi	-11.811
▁Sunday	-11.811
▁Sung	-11.811
▁Switzerland	-11.811
▁Syria	-11.811
▁Szymborska	-11.811
▁TB	-11.811
▁TEDTalk	-11.811
▁Tai	-11.811
▁Thailand	-11.811
▁Thanksgiving	-11.811
▁Thinking	-11.811
▁Thuật	-11.811
▁Thú	-11.811
▁Thương	-11.811
▁Thường	-11.811
▁Thần	-11.811
▁Thằng	-11.811
▁Tower	-11.811
▁Toà	-11.811
▁Transition	-11.811
▁Trồng	-11.811
▁Tài	-11.811
▁Tâm	-11.811
▁Tân	-11.811
▁Tư	-11.811
▁Tạ	-11.811
▁Tạo	-11.811
▁Tập	-11.811
▁Tặc	-11.811
▁Tới	-11.811
▁Under	-11.811
▁V	-11.811
▁Viết	-11.811
▁Việt	-11.811
▁Vương	-11.811
▁WOW	-11.811
▁Water	-11.811
▁Were	-11.811
▁Whether	-11.811
▁Who's	-11.811
▁WikiHouse	-11.811
▁Wikipedia	-11.811
▁Will	-11.811
▁Winter	-11.811
▁Xanh	-11.811
▁Xô	-11.811
▁Yemen	-11.811
▁Yosemite	-11.811
▁You'd	-11.811
▁Young	-11.811
▁Zen	-11.811
▁a'walking	-11.811
▁a.m.	-11.811
▁abandon	-11.811
▁abilities	-11.811
▁abundance	-11.811
▁accelerate	-11.811
▁accept	-11.811
▁according	-11.811
▁accounts	-11.811
▁achieved	-11.811
▁acid	-11.811
▁acted	-11.811
▁actively	-11.811
▁ad	-11.811
▁addition	-11.811
▁addressed	-11.811
▁addressing	-11.811
▁adopt	-11.811
▁afterwards	-11.811
▁agenda	-11.811
▁agent	-11.811
▁ages	-11.811
▁aggressive	-11.811
▁agricultural	-11.811
▁airplanes	-11.811
▁alcohol	-11.811
▁algae	-11.811
▁alternation	-11.811
▁ambassador	-11.811
▁analogy	-11.811
▁analyzing	-11.811
▁and'	-11.811
▁anger	-11.811
▁animated	-11.811
▁announced	-11.811
▁anonymous	-11.811
▁anticipate	-11.811
▁ants	-11.811
▁anxiety	-11.811
▁apparatus	-11.811
▁apparently	-11.811
▁appeal	-11.811
▁appealing	-11.811
▁apples	-11.811
▁architectural	-11.811
▁arise	-11.811
▁arranged	-11.811
▁arrival	-11.811
▁ascending	-11.811
▁assets	-11.811
▁assigned	-11.811
▁assignments	-11.811
▁assumes	-11.811
▁assumptions	-11.811
▁asteroids	-11.811
▁astonishing	-11.811
▁attach	-11.811
▁auditorium	-11.811
▁authenticity	-11.811
▁automobile	-11.811
▁avatars	-11.811
▁baby's	-11.811
▁bag	-11.811
▁bananas	-11.811
▁bankers	-11.811
▁banking	-11.811
▁bar	-11.811
▁barrier	-11.811
▁bats	-11.811
▁battle	-11.811
▁beach	-11.811
▁beautifully	-11.811
▁behavioral	-11.811
▁believes	-11.811
▁belong	-11.811
▁benzene	-11.811
▁betting	-11.811
▁bike	-11.811
▁bill	-11.811
▁binder	-11.811
▁bird	-11.811
▁bites	-11.811
▁bitum	-11.811
▁bitumen	-11.811
▁blame	-11.811
▁blend	-11.811
▁blizzard	-11.811
▁blocking	-11.811
▁boats	-11.811
▁boom	-11.811
▁boots	-11.811
▁bottle	-11.811
▁bow	-11.811
▁boxes	-11.811
▁breaks	-11.811
▁bribe	-11.811
▁brick	-11.811
▁bridges	-11.811
▁broad	-11.811
▁brown	-11.811
▁brutal	-11.811
▁bucket	-11.811
▁budget	-11.811
▁bug	-11.811
▁bulb	-11.811
▁bullshit	-11.811
▁bump	-11.811
▁buried	-11.811
▁burn	-11.811
▁buyers	-11.811
▁buồm	-11.811
▁buồng	-11.811
▁bát	-11.811
▁báu	-11.811
▁bén	-11.811
▁bì	-11.811
▁bôi	-11.811
▁bùn	-11.811
▁bầy	-11.811
▁bến	-11.811
▁bốc	-11.811
▁bồi	-11.811
▁bồn	-11.811
▁bỗng	-11.811
▁bời	-11.811
▁bực	-11.811
▁cable	-11.811
▁cage	-11.811
▁calculated	-11.811
▁calendar	-11.811
▁cancers	-11.811
▁captured	-11.811
▁carbonate	-11.811
▁carcasses	-11.811
▁cards	-11.811
▁cared	-11.811
▁cares	-11.811
▁cash	-11.811
▁categories	-11.811
▁cats	-11.811
▁ceiling	-11.811
▁challenged	-11.811
▁characteristic	-11.811
▁checks	-11.811
▁chemicals	-11.811
▁chemist	-11.811
▁chen	-11.811
▁chest	-11.811
▁chiêm	-11.811
▁chord	-11.811
▁choàng	-11.811
▁chromosomes	-11.811
▁chuyền	-11.811
▁chuông	-11.811
▁chíp	-11.811
▁chướng	-11.811
▁chật	-11.811
▁chệch	-11.811
▁chồn	-11.811
▁chợ	-11.811
▁citation	-11.811
▁citations	-11.811
▁civil	-11.811
▁clarity	-11.811
▁clathrin	-11.811
▁clearer	-11.811
▁clients	-11.811
▁climbing	-11.811
▁clinical	-11.811
▁clip	-11.811
▁clips	-11.811
▁cloth	-11.811
▁clusters	-11.811
▁collaborate	-11.811
▁collapse	-11.811
▁colleague	-11.811
▁coma	-11.811
▁combat	-11.811
▁comfort	-11.811
▁comments	-11.811
▁commit	-11.811
▁communicating	-11.811
▁compete	-11.811
▁competitors	-11.811
▁compound	-11.811
▁compressed	-11.811
▁computing	-11.811
▁concerns	-11.811
▁condom	-11.811
▁confront	-11.811
▁confusing	-11.811
▁connecting	-11.811
▁connects	-11.811
▁consequence	-11.811
▁consideration	-11.811
▁constant	-11.811
▁construct	-11.811
▁constructed	-11.811
▁consumers	-11.811
▁continually	-11.811
▁continuing	-11.811
▁contraceptives	-11.811
▁contracts	-11.811
▁contribute	-11.811
▁conviction	-11.811
▁cooperate	-11.811
▁cooperative	-11.811
▁copied	-11.811
▁corn	-11.811
▁corresponds	-11.811
▁cotton	-11.811
▁counterparts	-11.811
▁courageous	-11.811
▁cousins	-11.811
▁covering	-11.811
▁cowshed	-11.811
▁cozy	-11.811
▁cracking	-11.811
▁crashes	-11.811
▁creator	-11.811
▁criticize	-11.811
▁crux	-11.811
▁cry	-11.811
▁cua	-11.811
▁custody	-11.811
▁cute	-11.811
▁cuộn	-11.811
▁cybercriminals	-11.811
▁cyborgs	-11.811
▁cành	-11.811
▁cật	-11.811
▁cọ	-11.811
▁cối	-11.811
▁cộ	-11.811
▁cở	-11.811
▁củng	-11.811
▁dad's	-11.811
▁daily	-11.811
▁dang	-11.811
▁day-to-day	-11.811
▁de	-11.811
▁dealing	-11.811
▁deals	-11.811
▁debris	-11.811
▁decides	-11.811
▁decision-making	-11.811
▁deck	-11.811
▁defense	-11.811
▁delete	-11.811
▁deliberately	-11.811
▁delicious	-11.811
▁delight	-11.811
▁democratic	-11.811
▁democratize	-11.811
▁denial	-11.811
▁dental	-11.811
▁deny	-11.811
▁dependence	-11.811
▁depending	-11.811
▁deploy	-11.811
▁depth	-11.811
▁derive	-11.811
▁describing	-11.811
▁description	-11.811
▁devastated	-11.811
▁developmental	-11.811
▁diagram	-11.811
▁dictator	-11.811
▁dictionaries	-11.811
▁dies	-11.811
▁diet	-11.811
▁dinosaurs	-11.811
▁diplomacy	-11.811
▁directors	-11.811
▁disaster	-11.811
▁discipline	-11.811
▁discover	-11.811
▁discrete	-11.811
▁discrimination	-11.811
▁discussion	-11.811
▁disorder	-11.811
▁distances	-11.811
▁diễu	-11.811
▁dodo	-11.811
▁dolphins	-11.811
▁dominant	-11.811
▁download	-11.811
▁downtown	-11.811
▁dozens	-11.811
▁dressed	-11.811
▁driven	-11.811
▁droplet	-11.811
▁dropping	-11.811
▁dunes	-11.811
▁dynamics	-11.811
▁dyslexic	-11.811
▁dâu	-11.811
▁dơi	-11.811
▁dưa	-11.811
▁dạn	-11.811
▁dật	-11.811
▁dệt	-11.811
▁ear	-11.811
▁earned	-11.811
▁ears	-11.811
▁ecological	-11.811
▁economically	-11.811
▁economics	-11.811
▁editor	-11.811
▁editors	-11.811
▁efficiency	-11.811
▁efficiently	-11.811
▁egg	-11.811
▁elected	-11.811
▁election	-11.811
▁electron	-11.811
▁elegant	-11.811
▁else's	-11.811
▁emergence	-11.811
▁emissions	-11.811
▁empowering	-11.811
▁enable	-11.811
▁encourage	-11.811
▁encouraging	-11.811
▁encyclopedia	-11.811
▁endeavors	-11.811
▁endure	-11.811
▁ensure	-11.811
▁entering	-11.811
▁enterprise	-11.811
▁entrance	-11.811
▁envelope	-11.811
▁envision	-11.811
▁erasing	-11.811
▁estimated	-11.811
▁estimating	-11.811
▁ethical	-11.811
▁evaluation	-11.811
▁everybody's	-11.811
▁evil	-11.811
▁exam	-11.811
▁excellent	-11.811
▁exclusion	-11.811
▁executive	-11.811
▁expansion	-11.811
▁expectancy	-11.811
▁explores	-11.811
▁expressing	-11.811
▁expression	-11.811
▁external	-11.811
▁facilities	-11.811
▁factors	-11.811
▁failures	-11.811
▁fair	-11.811
▁farms	-11.811
▁fatal	-11.811
▁fault	-11.811
▁fears	-11.811
▁feature	-11.811
▁fed	-11.811
▁federal	-11.811
▁feelings	-11.811
▁fees	-11.811
▁females	-11.811
▁fence	-11.811
▁fictional	-11.811
▁fields	-11.811
▁filed	-11.811
▁findings	-11.811
▁finger	-11.811
▁fingers	-11.811
▁firing	-11.811
▁firms	-11.811
▁flag	-11.811
▁flat	-11.811
▁flexible	-11.811
▁focusing	-11.811
▁foragers	-11.811
▁forgot	-11.811
▁forgotten	-11.811
▁formation	-11.811
▁frequency	-11.811
▁frequent	-11.811
▁fresh	-11.811
▁fueled	-11.811
▁functional	-11.811
▁fusion	-11.811
▁fuzzy	-11.811
▁gather	-11.811
▁gathering	-11.811
▁geeks	-11.811
▁gender	-11.811
▁generate	-11.811
▁generous	-11.811
▁genetics	-11.811
▁genome	-11.811
▁genomes	-11.811
▁geologists	-11.811
▁gifts	-11.811
▁girlfriend	-11.811
▁giãn	-11.811
▁giở	-11.811
▁globalized	-11.811
▁goi	-11.811
▁grand	-11.811
▁grandparents	-11.811
▁grasp	-11.811
▁grass	-11.811
▁gratitude	-11.811
▁greenhouse	-11.811
▁grows	-11.811
▁guarantee	-11.811
▁guide	-11.811
▁gò	-11.811
▁h	-11.811
▁habits	-11.811
▁hacker	-11.811
▁hall	-11.811
▁hand-cleaning	-11.811
▁handing	-11.811
▁hanging	-11.811
▁hardest	-11.811
▁hardly	-11.811
▁hardware	-11.811
▁harmony	-11.811
▁hating	-11.811
▁he'll	-11.811
▁headlines	-11.811
▁headquarters	-11.811
▁healed	-11.811
▁heals	-11.811
▁hearts	-11.811
▁height	-11.811
▁helium	-11.811
▁hello	-11.811
▁hero	-11.811
▁hey	-11.811
▁highway	-11.811
▁hip	-11.811
▁hired	-11.811
▁holds	-11.811
▁homework	-11.811
▁honor	-11.811
▁hopes	-11.811
▁horrible	-11.811
▁horrified	-11.811
▁horses	-11.811
▁housing	-11.811
▁hoài	-11.811
▁hoãn	-11.811
▁hunted	-11.811
▁hut	-11.811
▁hydrant	-11.811
▁hydroponics	-11.811
▁hâm	-11.811
▁hân	-11.811
▁hít	-11.811
▁hôi	-11.811
▁hơn.	-11.811
▁hưng	-11.811
▁hận	-11.811
▁icons	-11.811
▁identified	-11.811
▁ideology	-11.811
▁ignorance	-11.811
▁ignorant	-11.811
▁ignore	-11.811
▁ignored	-11.811
▁illustrates	-11.811
▁immigrants	-11.811
▁immune	-11.811
▁impatient	-11.811
▁impending	-11.811
▁imposed	-11.811
▁impressive	-11.811
▁imprisoned	-11.811
▁improved	-11.811
▁improving	-11.811
▁in'	-11.811
▁included	-11.811
▁includes	-11.811
▁inclusive	-11.811
▁induction	-11.811
▁infections	-11.811
▁influenced	-11.811
▁informal	-11.811
▁inhabitants	-11.811
▁injected	-11.811
▁injection	-11.811
▁injustice	-11.811
▁ink	-11.811
▁innovations	-11.811
▁innovative	-11.811
▁inorganic	-11.811
▁insect	-11.811
▁insects	-11.811
▁installation	-11.811
▁institute	-11.811
▁intentional	-11.811
▁interpreted	-11.811
▁interviewed	-11.811
▁intimate	-11.811
▁intrigued	-11.811
▁invent	-11.811
▁involves	-11.811
▁involving	-11.811
▁jailed	-11.811
▁jihad	-11.811
▁joke	-11.811
▁journal	-11.811
▁journalism	-11.811
▁journalist	-11.811
▁judging	-11.811
▁junk	-11.811
▁kem	-11.811
▁khan	-11.811
▁khiếu	-11.811
▁khoai	-11.811
▁khoét	-11.811
▁khuất	-11.811
▁khép	-11.811
▁khùng	-11.811
▁khỉ	-11.811
▁khử	-11.811
▁killing	-11.811
▁kills	-11.811
▁kilns	-11.811
▁kilo	-11.811
▁kimono	-11.811
▁kindness	-11.811
▁kingdom	-11.811
▁kitchen	-11.811
▁kits	-11.811
▁km	-11.811
▁knock	-11.811
▁kén	-11.811
▁kép	-11.811
▁kệ	-11.811
▁kỉnh	-11.811
▁kị	-11.811
▁labels	-11.811
▁laboratory	-11.811
▁laundry	-11.811
▁lawsuit	-11.811
▁lawyers	-11.811
▁leather	-11.811
▁leaves	-11.811
▁left-hand	-11.811
▁lend	-11.811
▁lens	-11.811
▁leopard	-11.811
▁lessons	-11.811
▁letting	-11.811
▁liberal	-11.811
▁liberals	-11.811
▁liberty	-11.811
▁library	-11.811
▁licensed	-11.811
▁lie	-11.811
▁life's	-11.811
▁life-threatening	-11.811
▁lifeless	-11.811
▁lifetime	-11.811
▁lighting	-11.811
▁limestone	-11.811
▁links	-11.811
▁liquid	-11.811
▁lists	-11.811
▁liêng	-11.811
▁loan	-11.811
▁located	-11.811
▁lol	-11.811
▁lonely	-11.811
▁lowering	-11.811
▁lung	-11.811
▁luồng	-11.811
▁lánh	-11.811
▁lãi	-11.811
▁lóng	-11.811
▁lót	-11.811
▁lô	-11.811
▁lăng	-11.811
▁lơ	-11.811
▁lấn	-11.811
▁lắc	-11.811
▁lẽo	-11.811
▁lều	-11.811
▁lọ	-11.811
▁lồng	-11.811
▁lột	-11.811
▁magazines	-11.811
▁maintenance	-11.811
▁mall	-11.811
▁man's	-11.811
▁manages	-11.811
▁manner	-11.811
▁manufactured	-11.811
▁manufacturer	-11.811
▁marathon	-11.811
▁marker	-11.811
▁marrow	-11.811
▁marry	-11.811
▁mask	-11.811
▁meals	-11.811
▁mechanical	-11.811
▁mechanics	-11.811
▁meets	-11.811
▁melt	-11.811
▁member	-11.811
▁membrane	-11.811
▁mercy	-11.811
▁mess	-11.811
▁metabolism	-11.811
▁migrate	-11.811
▁migrated	-11.811
▁migration	-11.811
▁mimic	-11.811
▁mindset	-11.811
▁minimum	-11.811
▁minivan	-11.811
▁miracles	-11.811
▁miserable	-11.811
▁misunderstood	-11.811
▁mixed	-11.811
▁modest	-11.811
▁monkey	-11.811
▁mood	-11.811
▁mortality	-11.811
▁motor	-11.811
▁moves	-11.811
▁movies	-11.811
▁multiplayer	-11.811
▁museum	-11.811
▁mushroom	-11.811
▁musical	-11.811
▁mày	-11.811
▁méo	-11.811
▁mó	-11.811
▁măng	-11.811
▁mưu	-11.811
▁mường	-11.811
▁mấu	-11.811
▁mẹo	-11.811
▁mịn	-11.811
▁mọt	-11.811
▁mồ	-11.811
▁mớ	-11.811
▁mứt	-11.811
▁nail	-11.811
▁naive	-11.811
▁nang	-11.811
▁native	-11.811
▁needing	-11.811
▁needles	-11.811
▁nerdy	-11.811
▁nerves	-11.811
▁newest	-11.811
▁newspapers	-11.811
▁nghịch	-11.811
▁ngoạn	-11.811
▁ngoặt	-11.811
▁ngây	-11.811
▁ngưng	-11.811
▁ngạo	-11.811
▁ngặt	-11.811
▁ngột	-11.811
▁ngửi	-11.811
▁ngự	-11.811
▁ngực	-11.811
▁nhuyễn	-11.811
▁nhào	-11.811
▁nhõm	-11.811
▁nhược	-11.811
▁nhấc	-11.811
▁nhện	-11.811
▁nhốt	-11.811
▁nhồi	-11.811
▁nhộng	-11.811
▁nhở	-11.811
▁nhục	-11.811
▁nickname	-11.811
▁nitrogen	-11.811
▁node	-11.811
▁noises	-11.811
▁noisy	-11.811
▁north	-11.811
▁nowhere	-11.811
▁nurse	-11.811
▁nurses	-11.811
▁nutrients	-11.811
▁nôi	-11.811
▁nơ	-11.811
▁nồi	-11.811
▁nộp	-11.811
▁obscure	-11.811
▁obsessed	-11.811
▁occurs	-11.811
▁officers	-11.811
▁offices	-11.811
▁one-by-one	-11.811
▁open-source	-11.811
▁operates	-11.811
▁optimistic	-11.811
▁option	-11.811
▁oral	-11.811
▁orange	-11.811
▁orbit	-11.811
▁organize	-11.811
▁organizing	-11.811
▁orgasm	-11.811
▁origin	-11.811
▁outfit	-11.811
▁output	-11.811
▁overseas	-11.811
▁overwhelmed	-11.811
▁owned	-11.811
▁owner	-11.811
▁ownership	-11.811
▁ox	-11.811
▁oxide	-11.811
▁oxy	-11.811
▁oxygen	-11.811
▁package	-11.811
▁pads	-11.811
▁pageant	-11.811
▁pairs	-11.811
▁pancreatic	-11.811
▁panel	-11.811
▁participants	-11.811
▁particle	-11.811
▁passing	-11.811
▁passwords	-11.811
▁pauses	-11.811
▁penalty	-11.811
▁peoples	-11.811
▁perceive	-11.811
▁permanent	-11.811
▁personality	-11.811
▁personalized	-11.811
▁perspectives	-11.811
▁petri	-11.811
▁philosophers	-11.811
▁photographed	-11.811
▁phình	-11.811
▁phôi	-11.811
▁phớt	-11.811
▁pig	-11.811
▁pink	-11.811
▁pizza	-11.811
▁plain	-11.811
▁planted	-11.811
▁plate	-11.811
▁platforms	-11.811
▁playful	-11.811
▁poisoned	-11.811
▁polar	-11.811
▁politician	-11.811
▁pollinate	-11.811
▁polls	-11.811
▁poorest	-11.811
▁pops	-11.811
▁pores	-11.811
▁porous	-11.811
▁possibilities	-11.811
▁pot	-11.811
▁poured	-11.811
▁pouring	-11.811
▁powerless	-11.811
▁practical	-11.811
▁precisely	-11.811
▁predators	-11.811
▁predictive	-11.811
▁pregnancy	-11.811
▁preparing	-11.811
▁presented	-11.811
▁presents	-11.811
▁pretend	-11.811
▁prices	-11.811
▁primarily	-11.811
▁prime	-11.811
▁principles	-11.811
▁printed	-11.811
▁priorities	-11.811
▁prioritize	-11.811
▁privilege	-11.811
▁privileged	-11.811
▁producers	-11.811
▁profile	-11.811
▁programming	-11.811
▁progression	-11.811
▁prolific	-11.811
▁pronounced	-11.811
▁proof	-11.811
▁proportion	-11.811
▁propose	-11.811
▁proposition	-11.811
▁prostitution	-11.811
▁protests	-11.811
▁protocell	-11.811
▁proton	-11.811
▁prototype	-11.811
▁pub	-11.811
▁pudding	-11.811
▁pulls	-11.811
▁pulse	-11.811
▁pump	-11.811
▁pursuit	-11.811
▁quantitative	-11.811
▁quyện	-11.811
▁quạ	-11.811
▁quấn	-11.811
▁quấy	-11.811
▁quẩn	-11.811
▁quận	-11.811
▁quẳng	-11.811
▁races	-11.811
▁radiation	-11.811
▁radical	-11.811
▁radically	-11.811
▁rainfall	-11.811
▁rainforest	-11.811
▁rapid	-11.811
▁rat	-11.811
▁rational	-11.811
▁raveling	-11.811
▁reaching	-11.811
▁readers	-11.811
▁realistic	-11.811
▁realizing	-11.811
▁rebuilding	-11.811
▁recipe	-11.811
▁reclaimed	-11.811
▁recognized	-11.811
▁recorded	-11.811
▁records	-11.811
▁recovery	-11.811
▁refer	-11.811
▁reflects	-11.811
▁refrigerator	-11.811
▁regret	-11.811
▁regularly	-11.811
▁religious	-11.811
▁rely	-11.811
▁remaining	-11.811
▁reminded	-11.811
▁rendered	-11.811
▁renewable	-11.811
▁repatriated	-11.811
▁repetitive	-11.811
▁reply	-11.811
▁reported	-11.811
▁required	-11.811
▁requirement	-11.811
▁rethink	-11.811
▁retired	-11.811
▁retreat	-11.811
▁revenge	-11.811
▁rhythm	-11.811
▁richest	-11.811
▁rings	-11.811
▁robust	-11.811
▁roll	-11.811
▁ron	-11.811
▁roof	-11.811
▁roofs	-11.811
▁rooms	-11.811
▁rough	-11.811
▁rubber	-11.811
▁ráo	-11.811
▁râu	-11.811
▁rã	-11.811
▁rò	-11.811
▁rầu	-11.811
▁rập	-11.811
▁rệt	-11.811
▁rọi	-11.811
▁sacred	-11.811
▁sacrifice	-11.811
▁sampled	-11.811
▁sanitary	-11.811
▁saved	-11.811
▁savings	-11.811
▁scanner	-11.811
▁scanning	-11.811
▁scheme	-11.811
▁scholars	-11.811
▁schooling	-11.811
▁scope	-11.811
▁score	-11.811
▁sculpture	-11.811
▁se	-11.811
▁seal	-11.811
▁season	-11.811
▁seasons	-11.811
▁seats	-11.811
▁seeking	-11.811
▁seeks	-11.811
▁selection	-11.811
▁selective	-11.811
▁self-determination	-11.811
▁self-esteem	-11.811
▁self-interest	-11.811
▁senior	-11.811
▁sensors	-11.811
▁sensory	-11.811
▁servant	-11.811
▁settled	-11.811
▁severe	-11.811
▁severely	-11.811
▁sexy	-11.811
▁shaking	-11.811
▁sheets	-11.811
▁shelf	-11.811
▁shelter	-11.811
▁shifted	-11.811
▁shocking	-11.811
▁shocks	-11.811
▁shoes	-11.811
▁shots	-11.811
▁shoulders	-11.811
▁shovel	-11.811
▁shrunk	-11.811
▁significance	-11.811
▁significantly	-11.811
▁silicon	-11.811
▁silk	-11.811
▁sir	-11.811
▁sisters	-11.811
▁skeletons	-11.811
▁skinny	-11.811
▁sky	-11.811
▁slept	-11.811
▁slime	-11.811
▁slope	-11.811
▁smarter	-11.811
▁smoke	-11.811
▁smoking	-11.811
▁smug	-11.811
▁snakes	-11.811
▁snuck	-11.811
▁so-called	-11.811
▁societal	-11.811
▁soi	-11.811
▁someplace	-11.811
▁sonicate	-11.811
▁spatial	-11.811
▁spawning	-11.811
▁speaks	-11.811
▁spoil	-11.811
▁spreads	-11.811
▁squid	-11.811
▁stabilize	-11.811
▁stacking	-11.811
▁stairs	-11.811
▁statement	-11.811
▁stations	-11.811
▁stolen	-11.811
▁stones	-11.811
▁straightforward	-11.811
▁strands	-11.811
▁streaming	-11.811
▁stressed	-11.811
▁strings	-11.811
▁strip	-11.811
▁stroke	-11.811
▁strolling	-11.811
▁stronger	-11.811
▁strongly	-11.811
▁structured	-11.811
▁subjective	-11.811
▁subjects	-11.811
▁succeeding	-11.811
▁successes	-11.811
▁suffer	-11.811
▁suffered	-11.811
▁suggest	-11.811
▁suitcase	-11.811
▁super	-11.811
▁supercomputer	-11.811
▁superstar	-11.811
▁supporting	-11.811
▁surfaces	-11.811
▁surplus	-11.811
▁surround	-11.811
▁survey	-11.811
▁surviving	-11.811
▁suspect	-11.811
▁suspended	-11.811
▁suspicious	-11.811
▁sustained	-11.811
▁swear	-11.811
▁sweat	-11.811
▁sweetheart	-11.811
▁switched	-11.811
▁symbol	-11.811
▁symbolic	-11.811
▁synthetic	-11.811
▁syringe	-11.811
▁sói	-11.811
▁sương	-11.811
▁taboo	-11.811
▁tang	-11.811
▁tanks	-11.811
▁targets	-11.811
▁tasks	-11.811
▁tax	-11.811
▁telephone	-11.811
▁telescopes	-11.811
▁temperatures	-11.811
▁ten	-11.811
▁tendency	-11.811
▁theater	-11.811
▁theories	-11.811
▁therapy	-11.811
▁thiêng	-11.811
▁thiêu	-11.811
▁thiếp	-11.811
▁three-dimensional	-11.811
▁thumb-wrestling	-11.811
▁thus	-11.811
▁thuý	-11.811
▁thính	-11.811
▁thẹn	-11.811
▁thề	-11.811
▁thể.	-11.811
▁tide	-11.811
▁tidy	-11.811
▁tier	-11.811
▁tightly	-11.811
▁till	-11.811
▁title	-11.811
▁tough	-11.811
▁tougher	-11.811
▁tourists	-11.811
▁toxic	-11.811
▁toái	-11.811
▁toả	-11.811
▁trabeculae	-11.811
▁traits	-11.811
▁transformation	-11.811
▁transit	-11.811
▁translation	-11.811
▁transmission	-11.811
▁transmit	-11.811
▁transparency	-11.811
▁transplant	-11.811
▁trap	-11.811
▁trapped	-11.811
▁tremor	-11.811
▁trends	-11.811
▁tribes	-11.811
▁tricked	-11.811
▁trigger	-11.811
▁trivial	-11.811
▁troops	-11.811
▁troubled	-11.811
▁trà	-11.811
▁tróc	-11.811
▁trương	-11.811
▁trễ	-11.811
▁trọn	-11.811
▁tuberculosis	-11.811
▁turbines	-11.811
▁typing	-11.811
▁tăm	-11.811
▁tạc	-11.811
▁tống	-11.811
▁tụng	-11.811
▁uncle	-11.811
▁unclear	-11.811
▁underground	-11.811
▁underwater	-11.811
▁unit	-11.811
▁units	-11.811
▁unprecedented	-11.811
▁unseen	-11.811
▁untold	-11.811
▁untouched	-11.811
▁untreated	-11.811
▁upper	-11.811
▁urgency	-11.811
▁usage	-11.811
▁uy	-11.811
▁uỷ	-11.811
▁vali	-11.811
▁valley	-11.811
▁variation	-11.811
▁ve	-11.811
▁vegetable	-11.811
▁veil	-11.811
▁ven	-11.811
▁venture	-11.811
▁venues	-11.811
▁viewing	-11.811
▁views	-11.811
▁villages	-11.811
▁violin	-11.811
▁viruses	-11.811
▁visible	-11.811
▁visuals	-11.811
▁vivid	-11.811
▁vulnerability	-11.811
▁ván	-11.811
▁váy	-11.811
▁vòm	-11.811
▁vôi	-11.811
▁vạch	-11.811
▁vất	-11.811
▁vắc	-11.811
▁vặn	-11.811
▁vẹt	-11.811
▁vỉa	-11.811
▁wander	-11.811
▁wanting	-11.811
▁warehouse	-11.811
▁warning	-11.811
▁water's	-11.811
▁waters	-11.811
▁watt	-11.811
▁weigh	-11.811
▁well-being	-11.811
▁wheat	-11.811
▁wheels	-11.811
▁whereas	-11.811
▁who've	-11.811
▁widespread	-11.811
▁winter	-11.811
▁wired	-11.811
▁wives	-11.811
▁wool	-11.811
▁worms	-11.811
▁worn	-11.811
▁worried	-11.811
▁wretched	-11.811
▁xoáy	-11.811
▁xăm	-11.811
▁xưng	-11.811
▁xảo	-11.811
▁xấp	-11.811
▁xổ	-11.811
▁xộn	-11.811
▁year's	-11.811
▁Áo	-11.811
▁Ô	-11.811
▁ào	-11.811
▁ân	-11.811
▁êm	-11.811
▁ôn	-11.811
▁ôtô	-11.811
▁Đa	-11.811
▁Đáng	-11.811
▁Đương	-11.811
▁Đảng	-11.811
▁Đấy	-11.811
▁Đặt	-11.811
▁Đứa	-11.811
▁đc	-11.811
▁điền	-11.811
▁đạn	-11.811
▁đắp	-11.811
▁đệ	-11.811
▁đệm	-11.811
▁đục	-11.811
▁Ước	-11.811
▁ưa	-11.811
▁ướp	-11.811
▁ướt	-11.811
▁ập	-11.811
▁ắc-quy	-11.811
▁ốc	-11.811
▁ớt	-11.811
▁ừm	-11.811
▁!'	-12.2164
▁(	-12.2164
▁---	-12.2164
▁----	-12.2164
▁....	-12.2164
▁0.6	-12.2164
▁0.8	-12.2164
▁000	-12.2164
▁0400	-12.2164
▁05049	-12.2164
▁1,050	-12.2164
▁1,365	-12.2164
▁1,500	-12.2164
▁1.1	-12.2164
▁1.4	-12.2164
▁1000	-12.2164
▁10000	-12.2164
▁104	-12.2164
▁10x10	-12.2164
▁110	-12.2164
▁111	-12.2164
▁112	-12.2164
▁12-year-old	-12.2164
▁125	-12.2164
▁126	-12.2164
▁13,000	-12.2164
▁13-year-old	-12.2164
▁140,000	-12.2164
▁1492	-12.2164
▁151	-12.2164
▁16K	-12.2164
▁1700	-12.2164
▁175	-12.2164
▁1776	-12.2164
▁179	-12.2164
▁17th	-12.2164
▁1800	-12.2164
▁1829	-12.2164
▁1838	-12.2164
▁1868	-12.2164
▁1875	-12.2164
▁19,000	-12.2164
▁1903	-12.2164
▁1907	-12.2164
▁1911	-12.2164
▁1912	-12.2164
▁192	-12.2164
▁1943	-12.2164
▁1945	-12.2164
▁1946	-12.2164
▁1948	-12.2164
▁1950s	-12.2164
▁1960s	-12.2164
▁1962	-12.2164
▁1966	-12.2164
▁1971	-12.2164
▁1972	-12.2164
▁1976	-12.2164
▁1979	-12.2164
▁1980s	-12.2164
▁1982	-12.2164
▁1990s	-12.2164
▁1992	-12.2164
▁1998	-12.2164
▁1K	-12.2164
▁2,200	-12.2164
▁2,5	-12.2164
▁2.0	-12.2164
▁20-year	-12.2164
▁200,000	-12.2164
▁2010	-12.2164
▁2014	-12.2164
▁2020	-12.2164
▁208	-12.2164
▁210	-12.2164
▁240	-12.2164
▁256	-12.2164
▁257	-12.2164
▁26.5	-12.2164
▁280,000	-12.2164
▁3.1	-12.2164
▁3.3	-12.2164
▁3.7	-12.2164
▁30-day	-12.2164
▁300.000	-12.2164
▁30s	-12.2164
▁348	-12.2164
▁350	-12.2164
▁353	-12.2164
▁35830	-12.2164
▁365	-12.2164
▁400,000	-12.2164
▁4000	-12.2164
▁43	-12.2164
▁44	-12.2164
▁47	-12.2164
▁492	-12.2164
▁5000	-12.2164
▁571,230,000	-12.2164
▁59,300	-12.2164
▁620	-12.2164
▁65	-12.2164
▁664	-12.2164
▁67	-12.2164
▁677	-12.2164
▁7,000	-12.2164
▁70,000	-12.2164
▁747	-12.2164
▁75,000	-12.2164
▁77	-12.2164
▁78.1	-12.2164
▁780	-12.2164
▁8.4	-12.2164
▁80s	-12.2164
▁83	-12.2164
▁88	-12.2164
▁900	-12.2164
▁91	-12.2164
▁99.999999	-12.2164
▁=	-12.2164
▁?'	-12.2164
▁A58	-12.2164
▁ADHD	-12.2164
▁AG	-12.2164
▁AK	-12.2164
▁AMP	-12.2164
▁ARN	-12.2164
▁Aaron	-12.2164
▁Abidjan	-12.2164
▁Abigail	-12.2164
▁Abracadabra	-12.2164
▁Abramovich	-12.2164
▁Absolutely	-12.2164
▁Abu	-12.2164
▁Abuse	-12.2164
▁Academy	-12.2164
▁Accenture	-12.2164
▁Acheulian	-12.2164
▁Acinetobacter	-12.2164
▁Acorn	-12.2164
▁Action	-12.2164
▁Actor	-12.2164
▁Aculab	-12.2164
▁Ada	-12.2164
▁Adam's	-12.2164
▁Adenauer	-12.2164
▁Adrian	-12.2164
▁Adrienne	-12.2164
▁African-American	-12.2164
▁Age	-12.2164
▁Aha	-12.2164
▁Aimee	-12.2164
▁Ain't	-12.2164
▁Airlines	-12.2164
▁Alabama	-12.2164
▁Alain	-12.2164
▁Alan	-12.2164
▁Alastair	-12.2164
▁Alaveteli.com.	-12.2164
▁Albany	-12.2164
▁Alberta	-12.2164
▁Aldo	-12.2164
▁Algerian	-12.2164
▁Allende	-12.2164
▁Alley	-12.2164
▁Alma-Tadema	-12.2164
▁Altea	-12.2164
▁Alto	-12.2164
▁Altos	-12.2164
▁Am	-12.2164
▁Amanda	-12.2164
▁Amazon	-12.2164
▁Amber	-12.2164
▁Amgen	-12.2164
▁Amnesty	-12.2164
▁Among	-12.2164
▁Amos	-12.2164
▁Anderson	-12.2164
▁Android	-12.2164
▁Andy	-12.2164
▁Angela	-12.2164
▁Angelo	-12.2164
▁Angola	-12.2164
▁Anil	-12.2164
▁Animalia	-12.2164
▁Ann	-12.2164
▁Anna	-12.2164
▁Anthony	-12.2164
▁Antonio	-12.2164
▁Appalachian	-12.2164
▁Appalachians	-12.2164
▁Apple	-12.2164
▁Appreciate	-12.2164
▁Arbor	-12.2164
▁Arcadia	-12.2164
▁Archie	-12.2164
▁Archive	-12.2164
▁Arctic	-12.2164
▁Argyll	-12.2164
▁Aria	-12.2164
▁Arizona	-12.2164
▁Armour	-12.2164
▁Army	-12.2164
▁Arndt	-12.2164
▁Arnold	-12.2164
▁Around	-12.2164
▁Arthur	-12.2164
▁Arunachalam	-12.2164
▁Asanga	-12.2164
▁Ashanti	-12.2164
▁Ashê	-12.2164
▁Asian	-12.2164
▁Aspen	-12.2164
▁Astronomers	-12.2164
▁Atacama	-12.2164
▁Atalanta	-12.2164
▁Athabasca	-12.2164
▁Atif	-12.2164
▁Auenbrugger	-12.2164
▁Augugliaro	-12.2164
▁Aurumque	-12.2164
▁Austen	-12.2164
▁Austrian	-12.2164
▁Avalon	-12.2164
▁Avatar	-12.2164
▁Avaz	-12.2164
▁Avelile	-12.2164
▁Avril	-12.2164
▁Awl	-12.2164
▁Aydah	-12.2164
▁Azerbaijan	-12.2164
▁B.	-12.2164
▁BBC	-12.2164
